#version: 0.2 - Trained by `huggingface/tokenizers`
Ġ Ġ
ĠĠ ĠĠ
ĠĠĠĠ ĠĠĠĠ
ĉ ĉ
= "
< /
ĠĠĠĠĠĠĠĠ ĠĠĠĠĠĠĠĠ
l a
o n
" >
r e
i n
Ġ c
s s
d i
e r
t i
l e
Ġ <
la ss
ĉĉ ĉĉ
Ġc lass
a n
t e
l i
di v
a r
o r
e n
h t
s t
s p
c o
a l
Ġ h
i d
t a
t h
re f
ti on
Ġ </
g e
/ /
m e
r o
Ġh ref
> </
> <
t p
r i
ht tp
sp an
ĠĠĠĠĠĠĠĠĠĠĠĠĠĠĠĠ ĠĠĠĠĠĠĠĠĠĠĠĠĠĠĠĠ
s e
a d
: //
i m
w w
t o
d e
co m
Ġ ĉĉĉĉ
l o
u n
a c
d a
0 0
en t
s c
p x
"> <
2 0
s i
t y
a ge
in g
p e
u r
) ;
c on
c h
ĠĠĠĠĠĠĠĠ ĠĠĠĠ
a t
Ġ s
Ġ ĉĉ
" :
o p
n a
e l
b o
u t
- -
da ta
t r
i g
p t
l in
t le
" ,
u e
s h
sc ri
r a
c e
u l
n e
ti tle
1 6
c k
=" /
te m
ww w
u m
Ġ f
Ġ data
i s
m a
scri pt
n t
im g
ty pe
h e
o l
Ġ ĉ
x t
Ġ .
d o
ge t
Ġ v
i l
r c
m o
c a
Ġ b
"> </
c tion
o t
i t
Ġ 1
i tem
w id
i e
Ġ p
= '
u s
la n
st y
Ġ 0
sty le
Ġ id
Ġ {
c t
m l
a m
im age
d er
te xt
Ø §
h o
v e
wid th
Ġ a
i f
ĠĠ Ġ
u b
Ġ title
Ġ t
ac k
op tion
q u
Ġs rc
Ġ }
te nt
ig ht
", "
": "
Ġĉĉĉĉ ĉĉĉĉ
1 0
n o
Ġ "
ht ml
lin k
v er
p ro
Ġ /
) {
Ã Ĳ
to p
ĠĠĠĠĠĠĠĠĠĠĠĠĠĠĠĠ ĠĠĠĠ
ar get
f i
ti c
un ction
1 4
Ġ =
e t
f o
Ġĉĉ ĉ
2 5
co l
p o
1 5
a v
u p
al ue
m en
Ġ '
na me
f or
g o
Ġt arget
th is
j p
w s
=" _
Ġ al
m ar
w e
g in
e s
f t
Ġĉĉĉĉ ĉĉ
la y
= =
a s
â Ģ
lan k
b lank
20 16
Ġ re
g ro
' ,
1 2
an d
f unction
Ġ in
ĠĠĠĠĠĠĠĠĠĠĠĠĠĠĠĠĠĠĠĠĠĠĠĠĠĠĠĠĠĠĠĠ ĠĠĠĠĠĠĠĠĠĠĠĠĠĠĠĠĠĠĠĠĠĠĠĠĠĠĠĠĠĠĠĠ
t d
Ġ -
Ġ type
Ġ S
e d
n g
un d
m ent
ã ĥ
Ġ style
A A
jp g
lin e
on t
f f
on e
( "
& #
t er
ã ģ
1 3
Ġv alue
0 5
j s
ĠĠĠĠĠĠĠĠĠĠĠĠĠĠĠĠ ĠĠĠĠĠĠĠĠ
al l
Ġ #
Ġal t
men u
p p
or der
_ _
! --
2 4
i con
con tent
a re
( '
bo x
\ /
a b
http s
d u
Ġ (
o g
id e
or t
o m
na v
Ġ C
c i
g b
Ġ Ð
1 8
, "
th e
1 9
ad d
2 2
a te
qu ot
gro und
ack ground
ã Ĥ
& &
1 7
Ø ±
) .
v i
g a
ur n
he ad
Ġĉĉĉĉ ĉ
) ,
Ð ¾
g ht
Ġ width
am p
Ð °
z e
-- >
i c
3 9
0 4
le ft
Ġ A
o w
or y
ĠĠĠĠĠĠĠĠĠĠĠĠĠĠĠĠ ĠĠĠĠĠĠĠĠĠĠĠĠ
b r
Ġh e
o k
v ar
/ "
t on
g n
Ġ >
p ut
0 6
li ck
Ð µ
t urn
ĉĉĉĉ ĉĉĉĉ
Ġ P
se t
Ġ w
Ø§ Ù
do w
Ġ/ >
Ġ on
Ġ o
Ġ T
av a
de x
Ġ Ø
Ġ M
e m
à ¸
lo ck
s o
image s
ut ton
ĠĠĠĠ ĠĠ
2 6
mar gin
3 3
Ġhe ight
u re
} ,
2 8
p h
Ð ¸
2 7
li st
lo ad
Ġ e
for m
f a
Û Į
2 9
ro w
v ent
we b
j ava
d en
f e
ne ws
p a
col or
in dex
n er
3 0
java script
sp lay
me di
a li
a u
b i
re turn
ri ght
p age
st r
s ub
9 9
ta b
ar ch
di splay
v ie
tic le
Ġ name
3 5
b e
Ġ n
la b
b utton
1 1
k e
do c
Ù Ī
um ent
=" "
3 6
i a
o u
Ġre l
um b
Ġ B
ne t
ur l
ar t
ar ticle
s er
I n
3 4
si ze
| |
c lick
Ñ Ĥ
g ory
c ss
ca te
Ù ħ
p ort
p ng
Ġ< !--
co un
R e
n b
st a
on g
i r
og le
on tent
si tion
add ing
5 0
a me
ar d
er s
/ ">
d d
id den
} .
Ġ m
Ġ -->
Ñ Ģ
l N
Ġ D
le s
3 7
lab el
he ight
Ð ½
{ "
ra di
a tion
Ġ 2
f ont
ne w
l y
ta g
Ġ de
Ġ to
du ct
Ġc ol
doc ument
3 8
head er
s m
ĉĉ ĉ
ul l
' >
Ñ ģ
Ġĉĉĉĉĉĉ ĉ
1 00
Ġ the
) }
Ġ F
medi a
ĠĠĠĠĠĠĠĠ ĠĠ
_ .
Ġb order
le ment
ma in
d y
ho me
b lock
me ta
ide o
nb sp
6 4
po st
Ġ y
o b
a y
Ø§ Ø
m in
8 0
p re
w or
' );
Ġ r
a g
ta in
ti me
Ġ L
Ġ and
4 4
c d
6 6
Ù Ĩ
b ackground
à ¤
\ "
in put
5 7
p er
a pp
lo w
k it
tr ue
le ar
an s
l l
Ġ E
se arch
ma il
o ut
cate gory
, #
b order
j e
w ra
to m
ul t
ot er
b ar
9 0
ac e
go ogle
ĠĠĠĠ Ġ
in dow
ent er
si te
bo t
r y
Ð¾ Ð
Ġv ar
el d
N ame
] ,
h idden
en d
web kit
( )
al se
a se
Ø ¯
c at
th umb
8 8
l u
Ġ H
o ur
e x
5 5
- .
Ġb ackground
p ri
ti ve
Ġ G
da te
I C
pro duct
I d
Ġf or
Ġ d
Ù Ħ
an t
ä ¸
a ss
s k
Ġc ontent
p la
ca tion
bot tom
Ù Ĭ
8 4
m s
u te
o d
7 4
t n
h i
7 0
6 5
a k
str ong
. .
o f
7 5
Ã Ĥ
tain er
lo g
er y
vie w
ĠĠĠĠĠĠĠĠĠĠĠĠĠĠĠĠ Ġ
( );
Ġ W
Ù ĩ
8 5
v ideo
=" #
" /
a p
Ġ g
Ġ item
fo oter
tr y
Ø ª
E lement
Ġ N
Ġ I
s rc
6 9
ch e
bo ok
u se
âĢ ļ
te d
Ġ &
: #
4 0
ph p
3 2
ã Ģ
Ø§Ù Ħ
sta tic
i st
q ue
o s
vi ce
p adding
Ġ +
6 0
à ¦
n d
( ){
g if
ï ¼
ĠĠĠĠĠĠĠĠ Ġ
i on
in e
ĠĠĠĠĠĠĠĠĠĠĠĠĠĠĠĠĠĠĠĠĠĠĠĠĠĠĠĠĠĠĠĠ ĠĠĠĠ
; &#
Ġo f
r u
se ction
dow n
Â ²
cd n
ie s
c n
a a
Ð »
co de
, .
Ġĉĉĉĉĉĉĉĉ ĉ
tr ack
e vent
; ">
coun t
n one
bo dy
8 7
A g
g u
re s
ci al
', '
s li
T i
S e
ti p
w p
Ġ O
o de
4 5
m i
p ub
p tion
an ce
I m
8 6
in k
8 2
Ġ if
Ġon click
o ver
b an
p i
con tainer
c u
o li
l d
re d
tab le
" ;
us er
Ġf ont
to ol
po sition
Ġ $
in fo
ĠĠĠĠĠĠĠĠĠĠĠĠ ĠĠ
se le
ĠĠĠĠ ĠĠĠ
r or
" );
p u
c re
Ġ margin
u i
s a
p ar
2 3
se l
le ng
wor d
00 0
fi x
la r
I D
leng th
Ġĉĉĉĉĉĉĉĉ ĉĉĉĉ
6 7
w indow
; </
Ġ no
: "
2 1
o me
ali gn
Ġ 3
gb a
* *
f r
; "
in t
fa ult
fi eld
Ġ/ ></
9 4
. </
g r
ĠĠĠĠĠĠĠĠĠĠĠĠĠĠĠĠĠĠĠĠĠĠĠĠĠĠĠĠĠĠĠĠĠĠĠĠĠĠĠĠĠĠĠĠĠĠĠĠĠĠĠĠĠĠĠĠĠĠĠĠĠĠĠĠ ĠĠĠĠĠĠĠĠĠĠĠĠĠĠĠĠĠĠĠĠĠĠĠĠĠĠĠĠĠĠĠĠĠĠĠĠĠĠĠĠĠĠĠĠĠĠĠĠĠĠĠĠĠĠĠĠĠĠĠĠĠĠĠĠ
Ġ :
are nt
; }
Ð º
" )
v o
i ty
et s
j a
ab le
i th
ho ver
Ġ R
Ġin put
7 7
Ġ 4
t w
h a
p an
AA AA
si gn
k a
c m
0 1
} ;
il d
sh ow
ac tion
E vent
Ø ¨
ro p
t ri
9 5
ar row
f in
je ct
pp er
ad ow
or g
b u
z y
B y
Ġ 5
m it
4 8
g g
&& (
D e
c ar
b le
sh are
ĠĠĠĠĠĠĠĠĠĠĠĠ Ġ
p l
' ;
radi ent
lo go
u si
00 00
um n
bi le
' )
Ġr gba
Ġ !
c lear
Ġp ro
Ġp o
sh adow
ĠĠĠĠĠĠĠĠĠĠĠĠĠĠĠĠĠĠĠĠĠĠĠĠĠĠĠĠĠĠĠĠ ĠĠĠĠĠĠĠĠ
sm all
re ad
Ø ³
n ull
Ġ i
c enter
ä º
qu i
b er
6 8
b a
line ar
pro p
me s
g radient
u d
t s
}, {"
c ard
l s
0 3
9 7
Ġ |
f ig
up load
pu sh
at ch
=" //
Ġ U
g ra
re en
; :
] .
re n
gro up
/ ?
c y
te s
wra p
c or
P ro
tool tip
lo at
Ġcol or
4 7
ro ll
o re
' ).
f alse
b b
== ==
T e
m an
0 9
el l
lo gin
ma x
æ ľ
d s
v el
3 00
ĠĠ ĉ
N T
Ġ st
ol low
t or
b tn
n i
Ġ la
at ure
Ġ ar
B o
] ;
b al
Ġ V
3 1
Ġn one
lan g
} }
T y
Ġ menu
Ġ ro
>< !--
L o
Ġ document
re e
y s
C h
m on
o ff
Ġf unction
Ġ1 0
tr an
u to
Ñ ĥ
j f
7 2
de fault
9 6
oli d
c us
or m
coun try
Ġs olid
f b
ho to
"/ >
er ror
Ġ li
Ġ mo
F F
v alue
; &
mo z
a f
in ter
y a
E R
% ;
' :
u k
fo re
ke y
6 1
20 15
com p
Ty pe
å ħ
8 3
che ck
ent ry
ĠĠĠĠĠĠĠĠĠĠĠĠĠĠĠĠ ĠĠ
c c
t v
b y
tr ans
re g
lo bal
an g
L ink
w a
sele ct
0 2
IC Ag
p or
wra pper
" ).
âĢ ŀ
f la
mar k
Ù ģ
a th
=" ">
Ġ K
Ġĉ Ġĉ
N e
f ollow
im port
te n
so ur
f il
T A
Ø§Ù Ĩ
ol der
radi us
si on
Ġp adding
sour ce
fi les
ace book
C on
c lo
Ð ²
8 9
Â ¬
m y
Ñ ĭ
au to
m er
- %
I N
in ner
ĠĠ ĉĉĉĉ
ĉĉĉĉĉĉĉĉ ĉĉĉĉĉĉĉĉ
jf k
sp on
Ġ [
Ġ sc
wid get
Ġĉĉĉĉĉĉĉĉ ĉĉ
pri ce
sp e
Ġ //
": {"
Ġ is
import ant
ĠĠĠĠĠĠĠĠĠĠĠĠĠĠĠĠĠĠĠĠĠĠĠĠĠĠĠĠĠĠĠĠ ĠĠĠĠĠĠĠĠĠĠĠĠ
Y W
å ¤
H e
i p
get Element
Ġ di
Ġitem prop
14 6
0 7
li c
8 1
4 9
ta il
Ġ l
it ter
il y
P S
Ġ Ø§ÙĦ
ro m
s v
) </
r an
lo cation
Ġ text
+ +
) )
2 00
p op
us aa
Ġy our
ĠĠĠĠĠĠĠĠ ĠĠĠ
e b
Ġ In
ri te
fo cus
Ġf alse
4 6
g en
c ur
ing s
s ol
Ġ Î
M e
Ġ icon
m d
pro to
Ú ©
a le
] =
ce ss
Ñ ı
25 5
mo du
x s
col umn
sh e
h ref
i z
b l
Ġ this
st om
Ġ J
ad e
' ><
el se
Ġ Ùħ
upload s
: -
" },{"
M z
Â °
== =
C o
ar y
ass ets
d l
ment s
00 3
D A
i al
Ġb e
å ı
Ġro le
d G
au th
ig n
g lobal
or ig
da y
no follow
Ġ &#
as er
ç Ķ
mo bile
< !--
v a
å ®
scri ption
pla ce
ĠĠĠĠĠĠĠĠĠĠĠĠĠĠĠĠ ĠĠĠ
p b
Ġ Re
k i
à ¹
Ð ¼
a sp
\ \
Ġ th
B A
ie w
R E
7 6
Ġ me
h older
Ġ se
[ "
e e
sh op
Ø ©
Ġf a
b log
Ġc lear
A r
U S
20 2
ra me
ĠØ ¨
7 3
sub mit
ban ner
Ġ Y
p arent
Im age
or ies
c l
L e
Ġ left
ac tive
ar k
; ,
Z W
I G
v en
Q u
a e
Ġ ÃĲ
Ġc on
ac h
li gn
n s
Ġ ">
Ti me
pa ss
g t
p r
ac he
cre ate
Ø ¹
Ø ´
ãĥ ¼
fi le
ch an
ht m
Ã ©
te st
Ä ±
per ty
ad s
j o
c lass
v b
5 4
Ġar ia
di s
Ġ/ ><
7 9
g i
= \"
orig in
d rop
t u
C om
Ġ display
qu ery
6 3
Ġa lign
p lay
Ġ top
N av
sp ort
Ġ 20
Ġ k
D E
m p
le vel
7 8
z a
la zy
il l
Ñ Į
fi r
re ss
s u
Ġ 8
Ð ´
// //
style she
fe ature
p hoto
mo d
Ġw ith
Ã ĳ
el p
Ġf i
á »
Ġc h
0 8
P age
na il
Ø§ Ø±
bo ut
ĠĠĠĠĠĠĠĠĠĠĠĠĠĠĠĠĠĠĠĠ Ġ
U R
h r
5 9
y n
" }
Ġ an
æ ĸ
Ù Ĥ
mo re
ou sel
ICAg ICAg
ac ity
styleshe et
nav ig
Ġ _
O N
d t
for um
ad er
b g
T r
H ome
e mail
si z
Ġ \
C ontent
st er
c s
Ġ Ā
sol ute
B e
le t
op acity
te aser
Ġ 7
e c
ĠĠ ĉĉ
st ar
op en
ti d
tw itter
v al
Ġa uto
so cial
Y X
d f
tic s
re spon
Ġĉĉĉĉĉĉĉĉ ĉĉĉ
li ght
re nt
Ġ en
ff f
Ġ j
ok ie
I tem
w i
C A
T E
we ight
5 6
p s
N D
f acebook
4 2
-- --
p c
p ic
thumb nail
f loat
0 39
en u
sv g
sli de
in s
L ist
i ve
Ġ} );
st ory
Î ±
M o
à ¥
lan d
à ª
d b
sc roll
ĠĠĠĠĠĠĠĠĠĠĠĠĠĠĠĠĠĠĠĠ ĠĠ
s co
;: &
gr id
Ġ x
Ġ 2016
c al
s up
in a
on ent
ĠĠĠĠĠĠĠĠĠĠĠĠ ĠĠĠ
5 1
ut m
Â ł
S h
mo ve
4 1
Ġy ou
i te
ga me
=' /
Ġclear fix
b ack
in d
l er
Ġ un
6 2
X X
am ily
l t
] :
Ġ1 00
Ø§ ÛĮ
T o
f low
y e
Ġ js
al y
[ '
re m
Te xt
no script
re ct
st at
Ġ ><
w o
Z X
di a
C lick
c b
I E
G o
h p
H R
l b
th er
modu le
con t
T M
i x
de scription
hi te
L j
A C
no de
tion s
M S
4 3
sli der
Ġ true
. $
ate gory
Ġ1 5
c all
Ġ 9
page s
fla g
Ġ= =
Ñģ ÑĤ
ss age
G F
Î ¿
M a
å Ī
Ã ¢
=" .
cu stom
u ch
nt er
} );
ĠĠĠĠĠĠĠĠĠĠĠĠĠĠĠĠĠĠĠĠĠĠĠĠĠĠĠĠĠĠĠĠ ĠĠĠĠĠĠĠĠĠĠĠĠĠĠĠĠ
Ġ 6
Ġw indow
type of
la ce
origin al
N C
C lass
tr a
ãģ ®
st art
5 8
Ï Ħ
li sh
ho w
( {
O f
' ]
li ve
; "><
Ġ z
ä »
9 8
1 20
Ġ *
= !
** **
h b
de tail
ĠĠĠĠĠĠĠĠĠĠĠĠĠĠĠĠĠĠĠĠĠĠĠĠ Ġ
A t
O S
c f
proto type
Ð ¹
h d
Ġ url
Ġb lock
D i
la st
Ġĉĉĉĉĉĉĉĉ ĉĉĉĉĉĉĉĉ
Ġĉĉ Ġĉĉ
ç ļ
h u
ft er
la tive
U r
T op
in et
i o
" ),
br and
25 0
+ "
z c
s ide
15 0
T I
fir st
c an
umb er
) "
fig ure
h er
æ Ĺ
) :
="# "
asp x
N ode
f amily
Ġc om
Ġ new
. _
9 1
m b
at or
;, &
9 2
i co
ĠÐ ¿
trans form
Ġ http
Î ¹
Ġre turn
vie ws
mar y
ub e
auth or
s w
sel f
M C
" ]
li t
at ing
wor k
2016 05
ob ject
Ġ à¤
ad ob
v c
L E
I i
pass word
link s
le te
in line
a W
a i
j i
medi um
un g
D o
9 3
M j
O R
vi si
T ag
sp ace
j query
ch ild
adob es
å Ľ
Bo x
Ġh idden
adobes usi
mo use
S t
çļ Ħ
Ġ media
T Y
r d
ãĥ ³
google tag
a st
s ti
tran sition
site s
sc reen
un i
T he
pa th
E x
a ma
/ >
Ġ box
pro mo
h as
de al
A D
pre ss
Ġc o
ja x
drop down
li ty
Ø ²
A d
Ġin set
gu age
æ Ī
ac count
n el
ĠĠĠĠĠĠĠĠĠĠĠĠĠĠĠĠĠĠĠĠĠĠĠĠĠĠĠĠĠĠĠĠ ĠĠĠĠĠĠĠĠĠĠĠĠĠĠĠĠĠĠĠĠ
k o
Ã ¡
P o
g er
F o
le x
==== ====
tic al
= {
ci ty
Ġpo sition
be fore
e le
ser vice
5 2
ĠÐ ²
5 3
Ġ do
li fe
ra y
Ġ ÙĪ
di t
)} ;
i si
O D
ĠĠ ĉĉĉ
lN j
c ted
ÑĢ Ð°
c li
! [
re ak
sign in
D a
w d
O T
: '
de d
S ta
Ð¾Ð ²
h ide
aly tics
Ðµ Ð½
M enu
s or
m ber
\/ \/
Z G
P C
car ousel
com mon
am s
pe at
å į
Ġ ||
si ve
l g
no w
navig ation
à §
z i
yn c
> &
O b
c ache
re move
A L
al og
de cor
t arget
h at
v r
A n
' ></
ä ½
er vice
b ase
te l
Ġ at
ç ī
able d
Qu ery
u st
orm al
S S
Ð ·
M E
By Id
Ġ ma
Ø Ń
u ti
A R
t xt
on line
Ur l
Ġ or
å Ĭ
M i
ĠĠĠĠĠĠĠĠĠĠĠĠĠĠĠĠĠĠĠĠĠĠĠĠĠĠĠĠ Ġ
å Ĳ
ol d
S c
an a
pan el
! =
Ġ tab
lar ge
"> &
tem pla
clo se
à ®
ro l
: \/\/
O n
le n
Ġ lo
gg le
e k
getElement ById
âĢ ľ
å °
D Q
" +
tri b
Ġ tag
Ðµ ÑĢ
; -
Ġfi eld
Ø ¬
home page
bo ld
ĠĠĠĠĠĠĠĠĠĠĠĠĠĠĠĠĠĠĠĠĠĠĠĠ ĠĠ
Ĥ ¬
m m
) );
o o
en ta
A c
j b
con d
ad o
f c
A B
s ing
fe ed
C ol
pub lic
product s
F i
Ñ ĩ
Ġe x
sp rite
Ð ¿
u g
S tr
ine ss
lan guage
decor ation
lN z
Ġ div
N o
lo t
s b
Ð ±
re ac
r t
di f
mo de
Î µ
k ing
(' #
to ggle
" ==
Ġ Ñģ
ĠØ ¯
Ã ¼
Se arch
qu o
Ã ³
Ġ ad
Ġa b
Î ½
icon s
e lement
Ġal l
is te
} #
ers on
Ġ --
a ve
st o
Ú ¯
us iness
create Element
4 00
ĠT he
ĠN e
st ore
de sk
ï¼ Į
ar a
á º
Ġ 16
ar i
S ub
p en
f av
Ti tle
s By
! ==
T h
D I
n al
s te
å Ń
|| (
b d
sc he
getElement sBy
( !
a jax
# #
F orm
E r
Ġb y
ta ch
â Ĥ¬
ĠD e
the mes
ic s
le ase
Ġ right
P ri
I j
= /
re peat
are a
me mber
event s
/ "><
18 0
ca m
ca se
c lu
å ¹
C Q
clear fix
sp ac
ĠØ ª
"/ ></
ac t
Ġ nav
read y
O C
m all
P ass
mod al
ad a
Ġpro perty
M A
tran sp
: :
å ľ
n y
N z
th od
f ull
p art
é Ģ
Go ogle
m id
reac tid
t re
port s
ca ption
v ali
ch a
G E
ĠĠĠĠĠĠĠĠĠĠĠĠĠĠĠĠĠĠĠĠĠĠĠĠĠĠĠĠĠĠĠĠĠĠĠĠĠĠĠĠĠĠĠĠĠĠĠĠĠĠĠĠĠĠĠĠĠĠĠĠĠĠĠĠĠĠĠĠĠĠĠĠĠĠĠĠĠĠĠĠĠĠĠĠĠĠĠĠĠĠĠĠĠĠĠĠĠĠĠĠĠĠĠĠĠĠĠĠĠĠĠĠĠĠĠĠĠĠĠĠĠĠĠĠĠĠĠĠ ĠĠĠĠĠĠĠĠĠĠĠĠĠĠĠĠĠĠĠĠĠĠĠĠĠĠĠĠĠĠĠĠĠĠĠĠĠĠĠĠĠĠĠĠĠĠĠĠĠĠĠĠĠĠĠĠĠĠĠĠĠĠĠĠĠĠĠĠĠĠĠĠĠĠĠĠĠĠĠĠĠĠĠĠĠĠĠĠĠĠĠĠĠĠĠĠĠĠĠĠĠĠĠĠĠĠĠĠĠĠĠĠĠĠĠĠĠĠĠĠĠĠĠĠĠĠĠĠ
' s
ta ct
ĠI E
å ¥
h ot
g ories
Ġc enter
comp onent
Ġ ga
Tr ack
an im
C B
li cation
Ġc ell
parent Node
w hite
vo id
ä ¹
ar s
er i
ho o
str ing
Ġ le
V iew
16 0
to uch
s y
M T
) },
ĉĉĉĉ ĉ
head line
ig h
ĠP ro
ver y
Ne ws
, '
en g
a bout
I H
Ġ size
p y
S B
en ti
li p
Ø§Ù ħ
sh i
Ð ³
or s
all ery
ct ure
h elp
} ,"
n ing
m F
pl us
de fin
[ ]
1 10
check box
Ġtab index
k J
un t
( ).
er t
Ġ &&
la ck
tion al
e u
":" ","
W id
gra m
è ¯
Ġ link
Ġs h
Ġ ,
d le
mo vie
Ġa s
) (
âĢ Ŀ
video s
e y
7 1
f l
ct l
C ode
Ø§Ø ª
L W
w el
le d
Ġb tn
A F
d c
/ %
B B
v id
al th
Ġf loat
re a
an ge
bi lity
Ù ĥ
ne xt
e p
(" #
z h
transp arent
E mail
in i
trib ute
int l
u a
; (
ss ion
form at
Da ta
Tag Name
st ate
b ig
æ ĺ
k s
getElementsBy TagName
index Of
e f
i b
f rom
20 14
L iste
Ġ âĢ
Ø µ
d W
N j
defin ed
Ï ģ
de vice
do m
x x
b c
po s
u c
pop up
Ġon mouse
sc h
ti es
3 20
( ),
n r
M y
bo ard
Liste ner
de s
com ment
le ction
Ġ ac
it s
cat ch
ir st
Ġsc reen
z on
he ck
p d
å ¸
b ro
z z
sc a
s end
Ġĉĉĉĉĉĉĉĉĉĉĉĉ ĉ
è ¿
00 2
k u
C ategory
Ø ®
di rect
T R
M D
Ġo ver
O L
ĠÐ ½
re place
al s
l v
U p
com ments
å Į
ä ¼
h c
': '
desk top
ĠÐ ¸
fil ter
Ġ img
chan ge
t b
Ġ line
en dif
ce s
lu gin
u x
sele cted
ff ff
pre s
P E
Ġv iew
h y
Ġ ul
m at
\ ",
24 0
ac y
Ġ _.
Ġ else
); "
2 18
ãĥ Ī
if rame
å º
He ader
(' .
Ġĉĉĉ Ġĉĉĉ
Ġv er
; <
se c
la te
s g
Ï ĥ
; }.
$ (
ab solute
f n
w atch
Ã Ń
Ġ/ *
H O
it al
A S
u y
b reak
ar g
p f
ĠĠĠĠĠĠĠĠĠĠĠĠĠĠĠĠĠĠĠĠ ĠĠĠ
G V
] >
U T
ĠĠĠĠĠĠĠĠĠĠĠĠĠĠĠĠĠĠĠĠĠĠĠĠ ĠĠĠ
) ?
äº º
ie ws
co okie
++ )
mark et
ĠĠĠĠĠĠĠĠĠĠĠĠĠĠĠĠĠĠĠĠĠĠĠĠĠĠĠĠĠĠĠĠ ĠĠĠĠĠĠĠĠĠĠĠĠĠĠĠĠĠĠĠĠĠĠĠĠĠĠĠĠ
Ġ1 3
r s
fr ont
l c
po li
æ ī
//// ////
l Mz
radi o
bo l
Event Listener
scroll bar
Ġab solute
S p
H o
S i
PS J
Ġ Ø§Ø
si s
l n
Ġ ?
e a
è ®
an alytics
que st
down load
æ Ŀ
c ent
it ch
A N
ga q
at tach
è ¡
track ing
Ġ* /
Z T
sc ale
P G
i k
Ġ1 2
ma p
P j
feature d
over lay
S ign
(" .
la p
d ing
f ree
b m
app le
se cond
so ft
sp lit
Ġf rom
S I
clo ud
re source
ro id
bu y
as ync
ct or
o c
ph one
al t
O M
ter na
ãĤ ¹
C ar
respon sive
p in
st ri
over flow
Â ±
ch ar
+ '
w rite
ga mes
st re
Ù ¾
j ob
for ma
Ġp lace
g allery
m g
Ð° Ð»
b s
35 7
un defined
ĠØ ³
chan nel
w are
ãĢ ģ
6 00
h or
Ġch ar
] -->
the me
lay er
i en
Ñ ħ
Ġn ull
r ating
on ly
article s
Ob ject
ĉĉĉĉ ĉĉ
ser t
Ð° Ð½
I s
f lex
Ġ up
ur ance
dis abled
Ġ Ú©
1 14
a z
ri pt
ca le
t c
= [
at tr
u lar
ĠD ate
å ·
head ing
g y
sco pe
Ø± ÙĪ
Ġh as
TM L
T D
an i
1 15
A Q
n um
æĸ °
( ['
s f
Ġ action
im p
ä¸ Ń
ver tical
n umber
cate gories
}, {
c r
pi x
de sc
Ġ$ (
e xt
c ms
å¤ §
"} ,"
25 2
) &#
to s
ãĤ ¤
enta tion
cat alog
æ Ĭ
item s
b f
an ner
ç »
s html
b ed
te ch
re lative
" ===
de f
Ġth at
ï¼ ģ
, !
pri mary
u al
\ ":
) ">
D ate
di o
h l
g re
d ark
Ð¾ ÑĢ
;( +
ĠĠĠĠĠĠĠĠĠĠĠĠĠĠĠĠĠĠĠĠĠĠĠĠĠĠĠĠĠĠĠĠ Ġ
S E
lay out
ument s
t l
âĢ Ļ
arrow im
Ġ 30
æĹ ¥
å ¼
ãģ Ħ
in sert
ul ti
ĠĠĠĠ ĉ
Ø ·
Ġ u
Ch ild
\", \"
Ġv iews
h one
Ġ1 4
F e
Be fore
Ġ html
F or
ra p
an e
5 00
é ĩ
At tribute
Ġ el
ti le
ow n
arch ive
ac ute
V E
th ing
ed u
h and
Ġa re
siz ing
j sp
s um
ç Ľ
1 25
ho use
pro file
Ġp age
r id
n l
Ne w
comp lete
å Ĩ
c z
ãģ «
Î ·
app lication
Ġc ur
c id
Ðµ ÑĤ
14 0
m un
le g
Ñģ Ðº
A pp
or i
A E
|| "
k y
m atch
m ic
å ĵ
ti o
Ġ Ùģ
reg ion
sh ort
ĠM o
S U
Ġmo re
cur rent
Ġme thod
at er
b all
ĠC h
k t
---- ----
Ġ 50
m t
Ġon ly
ser ial
C H
co ver
b ab
templa te
Im g
/ _
ĠÐ ¾
V er
Ġ lang
m u
Ġ googletag
s on
i ta
c er
H J
on es
Ġ we
et ter
sh o
in di
ys tem
a o
Ï Ĥ
36 0
ãĥ¼ ãĥ
fin d
ä¸ Ģ
ï¼ ļ
w ay
0000 00
ca st
UR L
- _
w ith
I F
Pro duct
ĠS e
O P
ti ck
Sc ript
> ,
.. .</
C T
sing le
ĠĠĠĠĠĠĠĠĠĠĠĠĠĠĠĠĠĠĠĠĠĠĠĠĠĠĠĠ ĠĠ
æ µ
: </
Ġ Ã
å ±
.. .
o us
a sh
al terna
ver sion
I g
C E
Se le
ï ½
U n
a fter
Ġ it
Ġ end
net work
R o
Ġ date
me ssage
14 4
&& !
= &
insert Before
re st
ri ty
in o
Ð½ Ñĭ
Ġf o
ĉĉĉĉĉĉĉĉĉĉĉĉĉĉĉĉ ĉĉĉĉĉĉĉĉĉĉĉĉĉĉĉĉ
menu item
la t
cli ent
B E
tag s
cam pa
Ġ 24
e qui
as on
V y
option s
Ġ1 1
Ġo ut
ĠĠ ĉĉĉĉĉĉĉĉ
Ð¾Ð »
Ġm in
m x
å ĩ
pan y
to k
S T
ĠÐ º
Ġ} ,
Ġpo st
Ð° ÑĤ
add EventListener
Ġ da
10 5
( [
Wid th
que s
Î »
A l
ĠG o
sche ma
con text
di g
Lo ad
gg er
( /
ban k
06 2
t ings
Ġplace holder
ĠĠĠĠĠĠĠĠĠĠĠĠĠĠĠĠĠĠĠĠĠĠĠĠĠĠĠĠĠĠĠĠ ĠĠĠĠĠĠĠĠĠĠĠĠĠĠĠĠĠĠĠĠĠĠĠĠ
l k
ist er
AAAA AAAA
p lugin
Ð ¡
place holder
campa ign
> (
Ġn ot
stat us
or d
O w
Ð¸ ÑĤ
g s
à¸ Ļ
y ou
id s
Ġ max
sh ip
à °
Str ing
=' _
Er ror
go od
spac ing
Ġĉĉĉĉĉĉĉĉĉĉĉĉ ĉĉ
? "
Ġĉĉĉĉ Ġĉĉĉĉ
Ġin line
06 27
ç ½
2016 04
ag er
v is
ãĥ ĥ
p ing
Ø± ÛĮ
= _.
V alue
Ġp re
é Ľ
Time out
Ġ Z
pro d
ve st
: {
I con
y o
Ġp ar
sca pe
en te
Ġĉ ĠĠĠ
Ġla st
O ut
er o
wor ld
Ġs o
mid dle
d n
e st
c p
Con tainer
Ñ Ī
ur a
] );
=" -
ĠC om
style s
W F
lN D
Ġre lative
ter s
spe cial
t al
se d
"/ ><
Ġx ml
! </
her o
a ir
T V
B R
qui red
ĠL o
'); "
}; _.
ve d
1 16
pi cture
de l
Le ft
s r
ti ca
Ġv isi
ĠĠĉĉĉĉ ĉ
Ġ ta
ĠA r
N w
Ð¾Ð ´
Ġ tr
Ġ<!-- [
anim ation
e ar
Ñ Ĩ
Ġ ne
Ġ ì
Ġ )
ä ¿
Ġs ub
g h
bo th
pix el
gb q
ĠS t
E N
G U
12 3
i ce
service s
ĠÐ ´
Å Ł
S o
à¤ ¾
æ ¸
: !
w er
ab el
ca re
alterna te
em p
I T
Ġ opacity
u ri
H V
n R
Ġ add
' +
v acy
at ar
c ta
it ure
I nter
Ġc an
n ormal
Ø§Ø ¯
ãĤ ĭ
H TML
Ġĉĉĉĉĉĉĉĉĉĉĉĉ ĉĉĉ
an k
g d
x y
Ðµ Ð»
te nd
**** ****
bl ue
e di
ge s
ĠĠĠĠĠĠĠĠĠĠĠĠĠĠĠĠĠĠĠĠĠĠĠĠĠĠĠĠĠĠĠĠĠĠĠĠĠĠĠĠĠĠĠĠĠĠĠĠĠĠĠĠĠĠĠĠĠĠĠĠĠĠĠĠ ĠĠĠĠĠĠĠĠĠĠĠĠĠĠĠĠĠĠĠĠĠĠĠĠĠĠĠĠĠĠĠĠ
E n
à ´
top ic
à¸ ²
h en
" ],
Ġ "><
æ ķ
ĠĠ Ġĉ
Ġ{ "
sport s
Ð¾Ð ¼
L ay
Ð ¶
li d
à ¶
Ġ sp
W eb
L A
C C
ĠØ ¹
ap i
= (
load er
ĠT o
13 5
la s
ws er
P T
m c
Ï Ģ
); ">
z one
arg uments
([' _
Ġ! =
detail s
siz es
99 9
ICAgICAg ICAgICAg
cont rol
m n
Me ssage
y u
=" "><
ãģ Ĺ
Ġ ng
2 20
Ġ us
":" /
Co okie
Ġc or
h ab
04 3
co py
14 8
Ġ Ä
res ult
ãĤ Ĵ
E l
P ar
è ´
Ġ ÙĨ
p erson
Ġf irst
li ke
co re
con fig
book mark
=" {
Ï ħ
y es
Ã §
N E
) ),
Ma in
c art
? </
r and
Ġchar set
B utton
wel ry
lab le
ÙĪ Ø±
;} #
one y
ate d
P re
A u
an o
10 1
p onent
u stom
è ½
B C
R h
l h
ÃĲ Å
second ary
ie d
equi v
In fo
N A
z o
Ġ te
en s
; "></
t ing
app end
sa le
side bar
ĠT h
] [
ol u
pres entation
="# "><
L a
mar t
b ra
8 00
all y
Ġ set
p ref
um p
doc s
sub menu
ãģ §
S ite
i P
Pri ce
Ġ language
( _.
do t
x l
ow er
Ã ¤
Ġ get
in it
ch oo
ãĢ Ĥ
sco re
Ġ 25
ta x
ho st
row se
u Y
usi c
on s
si a
qui re
f d
Ġ Ùĩ
U M
å ¾
Ð° ÑĢ
c el
Ġe mail
ti al
b usiness
ĠA c
B Q
A T
ali ty
ta te
f u
14 5
Ð¸ Ð½
H P
p k
S ervice
av el
Ġ label
{ -
lN k
20 13
fo ot
ard s
ãģ ª
g pt
A ll
1 12
à¦ ¾
Ġp ri
b t
sk in
C a
pub lish
ra tio
G B
à ·
w in
L og
se s
usi on
A P
åĽ ½
h igh
L abel
Ġ span
f y
un e
ÙĬ Ø©
: [
X R
L I
Ġover flow
c ell
forma tion
O r
Ġĉĉĉĉĉĉĉĉ Ġĉĉĉĉĉĉĉĉĉ
thumb s
gen er
è §
ĠC o
Ø £
O pen
B D
ĠO n
ãĤ ¯
é Ļ
Di v
n ot
x p
vr on
let ter
======== ========
k r
ti m
= %
64 0
ãģ Į
M ath
Ð¸ Ñı
K ey
ãģ Ł
L H
00 22
Pass word
ÙĪ Ø¯
Ġ à¦
C M
Ð¾ ÑĤ
å ½
ser if
ac cess
ãģ ¦
C O
da tion
pre view
Ġ ÙĦ
Ġ ]
te rest
Î º
Ġitem scope
L i
0 34
Ġ linear
u id
Ġf e
ç İ
f lo
ti t
": [
con tact
Z D
Ġv ideo
e ach
X M
Ġ si
f p
13 0
Ġitem type
on load
j Query
&& "
ç §
ci a
M an
V ideo
C ase
j u
ta s
pp ing
Ġ site
Ġp er
as k
U A
lN E
f ra
è µ
off set
Lo gin
port al
Â »
é ģ
J S
m V
pa y
Ñ İ
track Event
b lack
H w
U ser
o x
Â «
Ġc at
ver s
ĠØ ´
resource s
x ml
he alth
en e
load ing
P R
10 4
sup port
or k
f s
ĠM a
Ġ bottom
W V
f an
-_ -
æ °
N S
F C
C at
or n
re r
Ġ< ![
user name
ãĤ ¢
06 44
] )
1 17
ç ¾
por n
li de
visi ble
ch o
er a
che vron
c tr
N i
Ġ transparent
ĠM e
tab s
FF FF
ĠĠĠĠ Ġĉ
st and
Ġ list
à¸ Ń
Ġv align
archive s
Ġs how
Ð¾ Ð½
trans late
99 99
t t
m k
Ð Ł
g am
å ¿
Ġj Query
B lock
S to
modu les
do main
st amp
ĠU S
Ġo ff
pe g
un der
2 25
ãĢ Ĳ
ri al
I S
P op
ĠC on
Ġ bold
ç º
cur sor
ãĢ ĳ
de sign
er r
Ġ @
ĠĠĠĠĠĠĠĠĠĠĠĠĠĠĠĠĠĠĠĠĠĠĠĠĠĠĠĠ ĠĠĠ
uti l
ub ble
à¸ £
ro om
th read
v an
z d
ya hoo
re sh
li a
C R
06 4
an el
à «
plugin s
åĵ ģ
v d
z M
=" (
S et
Ar ray
i sh
O ff
D B
Ġe ase
ul d
na tional
B anner
ĠĠĠĠĠĠĠĠĠĠĠĠĠĠĠĠĠĠĠĠĠĠĠĠĠĠĠĠĠĠĠĠ ĠĠĠĠĠ
ch i
Y S
ĠÐ ¼
In dex
Re quest
ç½ ĳ
l f
æ ĥ
fav icon
lap se
ÑĢ Ðµ
h n
Â ¡
key word
E S
] ||
ĠB e
10 8
y Z
Ġt d
e v
% "
Ġcol umn
bb s
Ġ1 7
? (
10 7
Ġh ide
Sh are
ĠA n
c le
å İ
l M
js on
25 3
col lection
æ İ
choo ser
c rop
dig ital
st op
æ Ģ
a ol
tri gger
å¹ ´
ç «
i re
w y
Ġ} ;
co me
x hr
ç Ļ
. "
Ġ sizes
"] ,"
po int
ĠL e
f it
class Name
f usion
Ø³ Øª
ou se
W Q
component s
D own
ĠÐ½ Ð°
r ss
17 0
p ol
æ Ķ
m v
ĠF or
å ĳ
tr avel
12 8
ãĥ «
ãĥ ©
L O
li der
o ther
u ro
ÙĨ Ø¯
am i
é Ĺ
1 13
ro ss
on om
if e
g p
er nal
h Y
up date
visi bility
spe ed
Ġs mall
w dG
s id
ĠE ND
b ind
w itter
Î ¯
ĉĉĉĉ ĉĉĉ
Ġa u
w M
Q E
j peg
è ¦
00 1
ĠS h
I M
Ġ( )
Ã Ĵ
100 0
go v
ma s
B ar
ãĥ »
Ġ1 8
æ ³
li b
r on
P g
A ction
æ Ń
": ["
33 3
ç ľ
De fault
ãĥ ª
Ġc ategory
ãģ ¨
âĢ ĺ
ĠØ ®
y reg
Ġxml ns
, &
op le
ï½ Ĺ
tre nd
off er
Sta te
cu rity
lo s
z u
NT E
Ġcell spacing
1 19
k b
å ¯
] </
s n
ur ation
f ly
Ð¸ Ðº
é ¡
'); ">
a la
L m
jo in
me ga
Ġa pp
ath er
te le
f er
du le
nav bar
Ġĉĉĉĉĉ Ġĉĉĉĉĉ
b ad
Ñ Ħ
w ar
be st
g an
à ¯
la ted
mun ity
te x
proto col
ti l
( )}
sto ck
W E
Ġ ></
| </
P A
v Y
R l
/ '
pro du
Me dia
b und
v n
ex p
Ø§Ø ¨
g al
if t
Ġ use
Ġm an
b k
TY PE
Ġ body
l p
f x
I L
28 1
min i
Ġ X
ig ation
J m
Co unt
B L
N y
in set
XX XX
) [
1 18
R a
de p
DQ o
st ance
ama zon
R es
P ub
Ã ¶
æ ł
photo s
ĠA d
fla sh
b lo
po inter
fil l
T ab
? ?
d p
t m
q a
) ();
ro up
f rame
5 37
10 2
æ Ļ
f ri
Ġb utton
je welry
le ss
pop ular
ĠGo ogle
ä¸ Ĭ
G et
lN T
S how
St art
Ġ Ø±
Ġĉĉĉĉĉĉ Ġĉĉĉĉĉĉ
k es
d ra
child ren
è Ģ
x z
W e
h an
i as
Re g
w b
ut f
Ġ ÏĦ
Mo bile
Ġ ge
ne d
ex ports
g c
é ¢
Z S
/ #
C L
ĠØ¯ Ø±
ti fi
av atar
Re ad
ci rc
C F
Ġn ormal
com men
16 3
ss l
Ġcell padding
O i
out ube
check ed
que e
16 8
Ø§Ø ³
ra te
s d
, _.
HR pb
b etter
ĠM an
land ing
app ly
w c
Â ¤
ĠE nd
ĠĠ Ġĉĉ
U E
Ii B
\ '
ãģ Ļ
Ġo ur
=" "></
v ing
) &&
ub le
b ubble
un it
He ight
ne y
ĠØ ¬
N v
wid e
Ġw p
à¹ Ģ
Ġ pe
an ti
çĶ ¨
Ġin ter
il li
Lay er
if y
o st
Î ¼
ty le
f ul
\ ">
æľ Ī
D F
Î ¬
A M
age s
ne ss
a h
X J
Ġsh are
ĠH e
CQ kJ
A nd
Ġh ome
B F
+ =
t in
i ss
Ġsc roll
c ut
di r
get Time
L C
Fo oter
7 00
", [
on d
S er
Z m
A dd
] ,"
E ng
k in
go s
J T
Sh op
) ||
l us
çĶ Ł
f lu
à¥ ĩ
Ġdate time
Ġ 22
28 0
Ø§Ù ĩ
ck et
m ulti
H and
/ '>
Ġ na
æ Ľ
Ġh ave
post s
4 04
vc HRpb
gb x
attach ment
ĠĠĠĠĠĠĠĠĠĠĠĠĠĠĠĠĠĠĠĠĠĠĠĠĠĠĠĠĠĠĠĠ ĠĠĠ
Ġw ill
pe s
)} ),
fil m
navig ator
Z y
ĠM ay
Ð¾Ð ³
g id
Ġhref lang
ff e
templa tes
Ø§Ø ²
A ss
ĠĠĉĉĉĉ ĉĉ
26 4
Ġla zy
w n
P i
flo or
2 10
à¤ °
US AA
Ġ-- ></
U K
ant s
(' /
b rowse
da sh
re view
Ġĉĉĉĉĉĉĉĉ ĉĉĉĉĉĉĉĉĉĉĉĉĉĉĉĉ
ck er
O ver
C lo
æ ±
Ġ$ ('#
and roid
F R
t body
à¦ °
H E
ra pper
âĢ ¬
Image s
Ð¸ Ðµ
="# ">
X B
sp a
or ld
á ĥ
add Class
ve lo
ms g
Ù ī
æ ¬
s z
æľ ī
de lay
ç¾ İ
K C
Ġ search
à¸ ģ
T a
2 33
## ##
! !
" },
P lease
é ¦
stre am
g Y
Ġ time
b n
bi B
so le
ĠA ll
def ine
scri be
Ġpo inter
A s
ga z
y our
t ro
x i
C heck
ç Ĳ
ĠĠĠĠĠĠĠĠĠĠĠĠĠĠĠĠĠĠĠĠĠĠĠĠĠĠĠĠĠĠĠĠ ĠĠĠĠĠĠĠĠĠĠĠĠĠ
k er
Å ¡
ad vice
å¥ ³
Ġe vent
C ont
10 9
ra tion
" !=
P H
E nter
d r
cm V
G A
He ad
re direct
">< !--
= ="
ti s
ti vi
sub string
f ac
I A
Po st
Ð¾ Ñģ
66 66
wo men
Ġno de
æ ĭ
no tic
la sh
m U
co s
27 0
P er
R ight
Col or
B u
ffff ff
Ar ticle
en ce
set tings
if i
M ore
ad min
lo cal
12 7
cloud front
AAAA AA
J y
; /
< ![
mar quee
par am
ç ´
' ),
.. /
l gbx
p ack
gra ph
ph a
âĢ ĵ
par se
x L
æ ´
better T
ĠĠĠĠĠĠĠĠĠĠĠĠĠĠĠĠĠĠĠĠĠĠĠĠĠĠĠĠĠĠĠĠ ĠĠĠĠĠĠĠĠĠ
Ġĉĉ ĠĠĠ
16 7
TI ON
do ws
Ġ 40
Ġcor respon
ont al
Ġ Ù¾
Ġ news
s l
ì Ŀ
D OC
Ġ que
M ay
g l
sta gram
T arget
sw itch
ch or
è ¨
ue s
æ ŀ
/ .
ass word
Ø ¶
eu ro
11 1
re ction
ĠC O
da ily
j d
ãģ ¾
Ġcorrespon ding
Do c
ĥ ½
âĢ Į
qu ality
al ert
() );
in clu
iz ontal
ÛĮ Ø¯
ok s
ne ct
Ġ ×
J o
our ce
V ar
cm d
Ġsrc set
Ġĉĉ Ġĉ
9 00
B g
ä¸ į
m bol
en er
DA TA
=" +
a w
f un
Ġĉĉ Ġĉĉĉ
tle t
e ven
app s
pt cha
åħ ¨
vali d
ra ph
ĠâĢ ª
cre dit
19 0
u la
)}; _.
è £
= _
ar n
Ġ àª
33 33
Pro perty
st ack
Ġa bout
Ð¸ Ð»
gbq f
ver ti
web site
re size
Ð ļ
26 5
IN G
me d
play er
ĠØ ¢
Ġ op
Ġon Click
Ð½ Ð¾
à¹ Ī
N l
tool s
Ġ3 00
b ur
DOC TYPE
å® ¶
ro me
ï½Ĺ ï½Ĺ
ĠĉĉĉĉĉĉĉĉĠĉĉĉĉĉĉĉĉĉ ĠĉĉĉĉĉĉĉĉĠĉĉĉĉĉĉĉĉĉ
Car ousel
$ ('#
ti k
Ġde l
n h
ly ph
16 5
onom y
ne s
> .
em bed
HO O
Ġb ro
35 0
å° ı
se ll
ĠĉĠĉ ĠĉĠĉ
{ {
//////// ////////
ãĢ Į
ÛĮ ÙĨ
w Lj
cache id
Â ·
ren cy
do or
Ġfor m
g ir
12 6
* /
ag en
ÙĪ ÙĨ
ent s
h k
Ï Į
S tyle
ĠT r
); }
Ã ł
Ġ ÑĤ
pl before
arrowim plbefore
hand le
Ġ try
A HOO
y outube
Ġĉ Ġ
F g
s urance
Ð° Ñı
k ar
æī ĭ
i i
10 6
ãģ ¯
l m
g or
) &&(
part ner
fo to
J ava
N O
Y z
C re
] +
p w
te am
mer ce
H D
C I
å ¦
S P
ro soft
re c
E D
la g
ser ies
H A
m ac
fi ce
M O
Bo dy
G u
å ķ
str u
Si ze
P lace
time stamp
è ĩ
s ort
E F
34 0
": []
13 2
åŃ Ĳ
S a
12 4
ãĢ į
ti re
v g
ç Ĥ
q i
âĢ ¢
he re
\": \"
à¸ ĩ
j x
k w
Ġ section
AA A
tain ment
col lapse
st u
15 5
ang le
feature s
Ġonmouse over
g ar
Ġ ë
> \
G roup
C DATA
ente red
7 28
to day
la test
R T
te ls
__ __
A uto
) ){
Ĵ ÃĲ
ve s
ut or
ĠS ta
pub ads
gre y
B a
Ġ1 9
mode l
à¥ į
à§ ĩ
A U
fig caption
tax onomy
18 5
C D
qui ck
in vest
f m
i ca
24 7
Ġb g
p Y
ĠÐ ±
ĠY ou
å¤ ©
36 5
13 6
Âł Ãĳ
ext ernal
l w
Ġ ti
Ġst art
pre v
com pany
bab y
e acute
ķ ãĤ
ran k
') [
all back
w g
que ue
p lan
ac ion
æľ º
b in
V V
ir d
82 17
bund les
ĠNe w
ĠM ore
pro perty
urn iture
na mic
ma ke
qu are
ln k
è ģ
X Y
gra y
Ġp or
ç ¬
Ġ image
sum mary
sign up
16 05
10 3
sh ot
( (
13 4
nd ar
Ġ go
z L
bi z
2 15
p id
sp ot
N s
B J
d k
26 0
)} }
2 30
P ath
l G
Ġf ill
ãģ £
Ġpro duct
P r
ÙĪ ÙĦ
17 5
ĠS o
ĠØ§ÙĦ Ùħ
é ĸ
Ġc heck
hab er
H elp
":" \
s ystem
Ġ= ==
2 34
ck s
g reen
ĠD i
Ġc ode
å ĭ
13 9
gt m
å ī
åħ ¬
ur s
é Ŀ
V o
Fi eld
"> &#
à§ į
/ -
AA E
as ide
Ġ$ ("#
site d
sp or
C an
é «
reg ister
Ġp r
ĠB o
imp le
Ø§Ù ģ
Q g
s lot
ĠĠĠĠĠĠĠĠĠĠĠĠĠĠĠĠĠĠĠĠĠĠĠĠĠĠĠĠĠĠĠĠ ĠĠĠĠĠĠ
f ace
æ¸ ¸
ĠĠĠĠĠĠĠĠĠĠĠĠĠĠĠĠĠĠĠĠĠĠĠĠĠĠĠĠĠĠĠĠ ĠĠĠĠĠĠĠĠĠĠĠĠĠĠĠĠĠ
V ali
z t
re member
è¡ Į
remove Class
al len
re ci
button s
Home page
L L
ch ase
Ġw hite
ĠY our
0 38
le y
r ont
é £
L ower
ĠĠĠĠĠĠĠĠĠĠĠĠĠĠĠĠĠĠĠĠĠĠĠĠĠĠĠĠĠĠĠĠĠĠĠĠĠĠĠĠĠĠĠĠĠĠĠĠĠĠĠĠĠĠĠĠĠĠĠĠĠĠĠĠĠĠĠĠĠĠĠĠĠĠĠĠĠĠĠĠĠĠĠĠĠĠĠĠĠĠĠĠĠĠĠĠĠĠĠĠĠĠĠĠĠĠĠĠĠĠĠĠĠĠĠĠĠĠĠĠĠĠĠĠĠĠĠĠĠĠĠĠĠĠĠĠĠĠĠĠĠĠĠĠĠĠĠĠĠĠĠĠĠĠĠĠĠĠĠĠĠĠĠĠĠĠĠĠĠĠĠĠĠĠĠĠĠĠĠĠĠĠĠĠĠĠĠĠĠĠĠĠĠĠĠĠĠĠĠĠĠĠĠĠĠĠĠĠĠĠĠĠĠĠĠĠĠĠĠĠĠĠĠĠĠĠĠĠĠĠĠĠĠĠĠĠĠĠĠĠĠĠĠĠĠĠĠĠĠĠĠĠĠĠĠĠ ĠĠĠĠĠĠĠĠĠĠĠĠĠĠĠĠĠĠĠĠĠĠĠĠĠĠĠĠĠĠĠĠĠĠĠĠĠĠĠĠĠĠĠĠĠĠĠĠĠĠĠĠĠĠĠĠĠĠĠĠĠĠĠĠĠĠĠĠĠĠĠĠĠĠĠĠĠĠĠĠĠĠĠĠĠĠĠĠĠĠĠĠĠĠĠĠĠĠĠĠĠĠĠĠĠĠĠĠĠĠĠĠĠĠĠĠĠĠĠĠĠĠĠĠĠĠĠĠĠĠĠĠĠĠĠĠĠĠĠĠĠĠĠĠĠĠĠĠĠĠĠĠĠĠĠĠĠĠĠĠĠĠĠĠĠĠĠĠĠĠĠĠĠĠĠĠĠĠĠĠĠĠĠĠĠĠĠĠĠĠĠĠĠĠĠĠĠĠĠĠĠĠĠĠĠĠĠĠĠĠĠĠĠĠĠĠĠĠĠĠĠĠĠĠĠĠĠĠĠĠĠĠĠĠĠĠĠĠĠĠĠĠĠĠĠĠĠĠĠĠĠĠĠĠĠĠ
de g
13 7
p li
37 5
I P
S lot
v y
Â §
in st
ĠP ri
O ption
ĠA pp
Ð Ĵ
Ġ2 00
ãĤ ¿
sup er
ci on
m usic
k an
v w
V S
m r
], [
æĸ ĩ
å ł
gin e
I R
ãģ ĭ
ci o
13 8
re port
op in
pla fter
arrowim plafter
Ġe ven
) |
ĠI s
brand s
Ġ im
ma g
28 5
18 8
E G
17 3
ãĤ ī
select or
ac on
on y
Ġ level
":[ {"
emp ty
Ġ article
ĠE x
: :-
U N
âĢ ¦
ĠĠĠĠĠĠĠĠĠĠĠĠĠĠĠĠĠĠĠĠĠĠĠĠĠĠĠĠĠĠĠĠ ĠĠ
pic s
U I
Ð¾Ð ¹
g ress
UT F
W rapper
æ Ħ
ch ina
é ĺ
vi sited
17 4
h am
ç ķ
æ ²
no log
con om
} ],
Ð¸ Ð¹
stat s
v s
Ac count
g f
cl ub
F B
') "
15 6
M ark
z r
person al
Å Ĥ
H B
=' {"
time s
ĠN o
Ã ª
Ġ one
à¹Ģ à¸
v ate
12 9
is ode
y b
Nav igation
la im
2 24
up port
Lower Case
P a
Ġfor mat
Ð ł
p m
Ġ+ =
l ing
table t
U g
W S
A K
L D
el ve
lu g
ins urance
ĠD o
ĠÐ¿ ÑĢ
to LowerCase
O K
Ġ main
19 4
Ġ' /
ĠNe ws
re al
pe d
hor izontal
2 36
Z i
circ le
NTE NT
20 4
j c
form ance
Ð» Ð°
Ã³ n
à¸ ±
i lable
A w
'] );
H Q
Ø± Ø¯
ge d
view port
% ,
id er
4 80
> -->
Y ou
u o
u ss
33 7
20 5
sub nav
æľ ¬
r gba
< \/
tail s
v il
content s
lyph icon
G R
ass et
ca p
Ġs er
å Ł
Ġl t
ĠĠĠĠĠĠĠĠĠĠĠĠĠĠĠĠĠĠĠĠĠĠĠĠĠĠĠĠĠĠĠĠĠĠĠĠ ĠĠĠ
at s
L T
ä ¾
57 1
P hoto
ĠÐ ·
ol s
x html
ad v
op y
15 2
st ories
(' <
stand ard
we et
V i
Ġtype of
19 5
de st
sy mbol
ĠØ Ń
Ġc re
se x
N a
ch er
< =
l r
ic al
åĪ Ĩ
K T
or a
z en
E E
ag ue
ãĤ Ĭ
Ðº Ð°
ma ster
=' +
15 4
Î¿ Ïħ
f ade
Pass wd
l z
ãĥ³ ãĥ
d uration
si l
action s
coun ter
Ø± Ø§ÙĨ
Ġ à¸
I nt
al d
lo cale
Â ¦
A x
D D
à¦ ¿
, -
lan ds
r k
ca s
% </
Ġr gb
h s
Ġ et
Ø± ÙĬ
. ","
do s
es ti
55 5
Ä ĥ
Pj x
3 05
= \
I l
ĠA nd
ĠĠĠĠĠĠĠĠĠĠĠĠĠĠĠĠĠĠĠĠĠĠĠĠĠĠĠĠĠĠĠĠĠĠĠĠĠĠĠĠĠĠĠĠĠĠĠĠĠĠĠĠĠĠĠĠĠĠĠĠĠĠĠĠ ĠĠĠĠ
ĠH ome
Ġ user
spe ct
=" &
åĩ º
Ġcur sor
en der
b j
Sub mit
G Q
æľ Ģ
ĠC ol
Ġauto complete
Se ction
fo od
Ġ' ',
Ġmo bile
v L
ĠR o
z ed
Ġ enter
Ġon line
YW x
H T
c ri
F il
p g
M ar
ä¼ ļ
p ad
st or
ce pt
3 06
E A
Ġ[ ];
l j
Ġ );
à¹ ī
Ġ account
0 281
quo te
19 2
ĠS ervice
get Attribute
vi sion
de lete
mi um
è ¶
da s
Ġ8 00
çĶ »
u f
J zc
r un
we ek
d m
17 7
op t
ĠT i
re l
Ġp ara
N vb
code UR
çī Ī
": {
( $
b ri
o dd
S pe
Ġ google
Lo go
t Y
38 0
ĠĠĠĠ ĉĉ
di sc
ser ver
Ġvisi ble
ï¼ Ī
Ġin i
" )}
ge st
3 10
Jzc D
un ce
ha sh
16 9
06 45
D is
Ġs ans
3 04
au ty
ĠOn line
m oney
c ra
B Y
s an
Ñ ī
O W
Ġ2 1
22 2
S D
om an
node Type
u h
( #
B tn
ar ti
ĠØ £
su c
w x
Ø Į
- \
y i
append Child
ï¼ ī
L z
c entered
66 6
Ġs u
F O
ï¼ Ł
ãĥ Ń
-- ><
job s
Y y
n c
2 000
fr on
ta tion
ĠØ¨ Ùĩ
E C
re quire
ĠT V
ien ce
vi a
Ð ŀ
B h
un try
U ni
id enti
u F
I y
Ġan y
ri c
"> [
"> (
par ams
m or
O j
Ðµ Ð¼
è ¾
ok ies
ãĤ «
h id
l vb
T ra
Z j
ĠÄ ĳ
Ø º
ex pan
Doc ument
gu ide
n u
life events
Con tact
movie s
F www
S w
to tal
C i
A rea
pe ar
b it
inner HTML
b en
22 9
N umber
ãĤ ³
æĺ ¯
15 8
Ġ" /
lip sis
forum s
ĠUS AA
W D
com merce
li e
B l
ran dom
S A
B O
lin es
k z
de m
et ch
Z C
20 8
Ġmax length
st ra
ad cast
da m
Ġĉ ĠĠĠĠĠĠĠĠ
13 3
ro und
w v
ÙĬ ÙĨ
< !
sp i
di e
X N
elve tica
V isi
24 8
Ġ" ";
2 35
Ġ ÙĤ
Ð¾Ð ±
% }.
29 8
L n
ad ing
ri ve
sc r
Ġfield set
in ing
K G
è Ĥ
ãĥ ¬
à¸ ¡
Ġ-- ><
è ª
h ar
age ment
m al
market ing
Ġĉĉ Ġ
do uble
keyword s
y ui
IC om
edi tor
7 20
bad ge
Ġ row
Ġcolumn s
k g
si g
æ ¯
j ia
14 7
out er
ti e
re am
Ã £
pa gin
Å ¾
24 4
pri vacy
good s
di alog
an cial
ICom ponent
M on
codeUR IComponent
mo s
å¸ Ĥ
18 4
Ä± n
15 7
par a
i li
à¥ Ģ
Ġv ali
ta rea
Ġ %
olu tion
no index
Ġ' ';
b il
à¸ ¢
ti ce
sk y
] "
w vb
J l
20 1
Ã «
Ġ 2015
39 9
P ort
29 1
ation s
27 5
ĠT e
Po sition
Java Script
di an
Ġ Ø§ÛĮ
Ġ 36
re lated
L y
: .
19 9
Ġf ree
v as
15 9
M sg
i ch
29 9
") [
Ġ widget
ãĤ ·
F a
=". /
M M
Ġin stance
Ġĉĉĉ Ġĉĉĉĉ
2 13
la tion
di tion
Z hb
bu ild
çĶ µ
i se
18 7
fix ed
Â ¨
ĠW e
dy namic
Ġc ache
Ġs ho
lo c
16 6
éĩ ĳ
se ason
ĠCO NTENT
Î Ń
Î ĳ
set Timeout
U y
å £
Ð° Ðº
ele m
ĠU n
2 14
Ġ Q
28 8
" !==
S V
ãĤ °
mF s
de li
Ø§Ù Ī
: $
16 4
ÙĦ ÛĮ
ä¸ ĭ
n on
z m
p le
script s
s en
Ex p
sh a
Z l
){ .
Ġĉĉĉĉĉĉĉ Ġĉĉĉĉĉĉĉ
Ø§Ø ¹
ck y
Ġp ull
re t
ãģ Ĭ
19 6
Ġw as
Æ ĴÃĲ
19 8
h al
ÃĲ ÆĴÃĲ
12 2
Link s
Ġver tical
un ch
an nel
ob j
I k
wo od
/ *
fi c
Ġ. ..
P L
Ġ} )();
=' '
i os
Ġ$ ('.
ent re
15 3
ÑĢ Ñĥ
U z
17 8
sh ion
shop ping
di tional
Sto re
T W
ĠF o
ãĥ Ĺ
24 6
bro wser
:" \
Â ®
img s
X V
pro gram
Ġs ervice
ri es
ex tend
bo ot
bi r
2 37
Ġc ar
ç ¥
n or
14 3
ame s
29 0
in stagram
ĠO f
ç¬ ¬
æµ ·
] ),
r ub
ĠĠĠĠĠĠĠĠĠĠĠĠĠĠĠĠĠĠĠĠĠĠĠĠĠĠĠĠĠĠĠĠ ĠĠĠĠĠĠĠĠĠĠĠĠĠĠĠĠĠĠĠĠĠ
ĠF acebook
C ustom
ri s
+ %
w hat
à¤ ¿
ĠĠĠĠĠĠĠĠĠĠĠĠĠĠĠĠĠĠĠĠĠĠĠĠĠĠĠĠĠĠĠĠ ĠĠĠĠĠĠĠĠĠĠĠĠĠĠĠĠĠĠĠĠĠĠĠĠĠ
se par
l ong
ro s
S k
load ed
c g
ĠV ideo
H x
sec ure
ado be
attach Event
k on
35 6
F acebook
Ġcol span
I f
å¤ ļ
19 99
top ics
I w
y an
we ar
b G
b ul
22 6
} @
ĠF e
y t
up er
ay s
er ms
u v
H M
U s
57 3
A V
P anel
33 0
è Ī
NC g
25 6
') ">
Ġs a
i le
z er
57 2
n m
Î ³
en se
Ġp op
i tok
fly out
Ä Ł
× Ļ
Ġ 28
åĬ ł
ca ptcha
allen ge
s quare
suc cess
åı ĳ
ro ot
-------- --------
148 36
Sp ry
Ġ" ",
pin terest
ch en
Ġ 90
Ð¸ Ð¸
){ }
hi ch
29 5
22 1
P lay
Ġ" +
star s
av i
! "
sub scribe
4 05
f w
Ġinstance of
a x
ĠS ans
re quired
Ð¾Ð º
ä½ ľ
ro ls
ĠØ¨ Ø±
ç Ł
ĠTh is
à¸ §
O G
r ad
ĠĠĠĠ Ġĉĉ
Ġ ;
in c
äº §
r m
à¸ µ
o i
20 7
we ather
Com p
d z
X T
Ã ±
b re
Sele ct
U L
Ġa go
ĠU p
ĠĠĠĠĠĠĠĠĠĠĠĠĠĠĠĠĠĠĠĠĠĠĠĠĠĠĠĠĠĠĠĠĠĠĠĠĠĠĠĠĠĠĠĠ ĠĠĠ
r al
U l
äº ĭ
I B
Q W
we st
37 3
tifi cation
A m
Ġno wrap
.. ..
ae a
C g
ĠI m
Ġde fault
str y
ra k
Ġfo oter
gu lar
E B
as y
M P
com munity
C ur
trend ing
art s
Ā Ā
ti fy
ĠÙħ ÙĨ
vid er
$ ("#
ä¿ ¡
M Y
à¸ ¥
S W
il er
W atch
fin ance
Ġ( !
bm JzcD
b el
fa st
no wrap
I t
M ode
ĠY AHOO
YX J
åľ ¨
t tp
cur rency
R k
short cut
i j
Ġ{ {
2 38
d one
Ð¾ ÑģÑĤ
W ith
Tr ans
537 27
Ġ Ñĥ
Â ©
Ðµ Ð¹
] )}
ifi cation
2 39
p al
card s
Ø «
pe ople
Ġĉ Ġĉĉ
N G
respon se
18 6
sm bmJzcD
our s
25 4
Ġm on
x e
ne ed
ãĢ Ģ
b W
d j
tw o
Ġ 60
Ðµ Ð´
ãĥ ¡
um l
b um
s ys
A y
Ð Ĳ
Ġf il
gu id
a si
spac er
" }}
ãĤ ¸
åĬ ¨
s ur
ra quo
Ä °
Ð Ĥ
à¤ ¨
tivi ty
Ġ q
Track er
ĠW eb
Â Ĳ
Ð Ŀ
pro gress
high light
é« ĺ
ç Ī
r b
Ġh elp
ÙĪ Ùħ
T H
i an
={ };
e sp
Wid get
on a
Ġt c
Â ¶
ch at
ä¸ ļ
inter i
ad or
Ag ent
à¸ Ķ
ç ®
( -
C N
K w
tem p
% ">
RE UM
Le arn
Y a
è ĥ½
17 6
Ð ľ
id dle
Ø °
na ble
Ġe lement
åľ °
ma y
di men
? :
spe c
à¯ į
ãĥ ŀ
Ġf rame
f ar
we d
Ġ bo
20 6
ç ¤
Ġf ace
ZX J
nav i
Ġ table
pre vent
f urniture
22 8
x a
bl ur
M ap
C art
22 7
Ġm y
co ur
GF u
è Ĭ
e dit
18 9
Ã ´
b h
33 5
Fe ature
st rap
' t
ĠĠĉĉĉĉ ĉĉĉ
ãģ ĵ
foot ball
|| !
ĠI nter
Z h
; '><
r p
Ġc ont
25 7
in ce
æ ģ
dW U
s ans
x b
Ã º
ase d
flu id
w t
"," _
Sele ctor
share d
e z
ref er
ner s
Ð¸ Ð°Ð»
ter m
R p
mon th
in es
h el
Ġ qu
lazy load
é¦ ĸ
=" ../
co up
ÙĦ Ùħ
; '>
W T
u z
Ġre g
èĩ ª
è ī
æĪ ĳ
ser ie
æĥ ħ
Ġ both
24 5
Æ °
ĠĠĠĠĠĠĠĠĠĠĠĠĠĠĠĠĠĠĠĠĠĠĠĠĠĠĠĠĠĠĠĠĠĠĠĠĠĠĠĠ ĠĠĠ
mo st
by line
pla t
100 00
2 19
p ull
ug h
ĠØ§Ø ²
h h
sli ce
o men
E le
W hat
Ú Ĩ
oli cy
) +
ab br
ĠAr ray
Î ®
set Attribute
Ð» Ñı
x M
= -
U w
Ġ Ïĥ
ĠC ar
J i
k en
f on
Ø± Ø¨
> =
g w
Ġp assword
re siz
d ana
à¸ ´
F E
G e
å ģ
; _.
da tor
44 4
Eng lish
j ust
çĤ ¹
7 37
27 4
c nt
k Z
ro tate
20 12
Ġun der
Ġ ra
g ot
li o
=[ ];
äº Ĩ
ed ge
Do main
th ers
si ty
Ġ2 3
Ġv o
14 9
A b
v Z
font s
te en
su g
ĠI D
ver se
_ %
L G
ĠA rial
li k
B ot
sp y
åķ Ĩ
Ġhe ader
lN DE
gaz ine
R A
åħ ¥
Di splay
ult ure
gener al
ĠW CM
stri p
Ġini tial
Ġcur rent
eb ay
p ur
in dia
B T
é ħ
Ġ ÙĬ
30 7
s mo
Ġar ial
slide show
Hand ler
å ĥ
ç Ń
Ġ em
field set
pr int
Ġonmouse out
27 9
L S
ic rosoft
2 16
con sole
åŃ ¦
lG OD
M u
q q
y re
Ġc lo
velo p
29 6
=' //
document Element
per formance
lvb j
Ðµ Ðº
++ ){
O ri
vali date
ĠF ree
; )
Ġdi r
F r
W W
Ġno w
Ġonmouse down
DQo J
zc z
ãĤ µ
me t
lo ok
ĠÙģ ÙĬ
f ut
Ġst at
an te
A bout
à ±
ĠØ§Ø ³
deal s
Ġ ui
Ġ{ };
c ross
"," ","
im a
pan e
id ent
=[ ],
comp are
prevent Default
re views
hi story
ob s
Z n
Ġp ub
ĠA l
k x
Ð° Ð¼
ĉĉĉĉĉĉĉĉĉĉĉĉĉĉĉĉĉĉĉĉĉĉĉĉĉĉĉĉĉĉĉĉ ĉĉĉĉĉĉĉĉĉĉĉĉĉĉĉĉĉĉĉĉĉĉĉĉĉĉĉĉĉĉĉĉ
V R
í ķ
q c
o a
Vali dation
J s
un k
E K
k l
ex ec
V D
é »
ãĤ ĵ
é ĥ
Ø¨ Ø±
shi pping
em pla
cale ndar
04 0
ad os
Ġcache d
ĠL ink
æ ¥
ing ton
ver t
æĸ ¹
St ar
tip s
ate s
æĽ ´
à¤ Ĥ
24 9
{ &
å Ģ
IC A
fa shion
i ble
y m
end s
j q
) /
Ġview Box
ic an
dis count
An alytics
ye ar
ÑģÑĤ Ð²
con nect
g un
Ġadd ress
a j
Ġx link
ç µ
è ĭ
vo te
Ã£ o
) }.
Ġĉĉĉĉ Ġĉĉĉĉĉ
F ree
06 31
Ġ am
Ġĉĉĉ Ġĉĉ
FFFF FF
ap is
çĲ Ĩ
cess ories
k m
17 9
× ķ
ãĤ Ĥ
fra mes
cli p
' });
Øª Ø±
ha pe
P U
19 7
w an
20 9
=" [
N h
out line
è ·
è½ ¦
C l
Ðµ Ñģ
G l
="" ;
},{ }],
com m
){ _.
s mart
w al
lv biB
B S
le ge
26 7
news letter
OS T
âĢ ł
ser ve
Ġ web
Ġ 35
smbmJzcD smbmJzcD
mFs dWU
Ġ selected
ac c
ga tion
ue st
il la
F in
e g
ad es
om n
ĠU s
E O
ren ce
Ð¸ Ð²
ĠĠĠĠĠĠ ĉ
29 7
ĠÐ ³
i ke
AAAAAAAA AAAAAAAA
34 5
if ied
[ \
/_ /
ç Ħ
le ad
G O
R u
b at
39 5
Ġ 32
D X
); _.
c v
4 06
D O
ac i
w f
an king
30 8
4 50
æ Į
e ss
Ġ \"
10 24
u lo
pa ti
HV l
gam enu
p Z
Ï ī
Ġ track
link ed
re v
th row
B I
lo ve
un ter
12 1
q b
dep th
N REUM
Ð Ķ
q r
ç ¨
K E
Ġb reak
T S
ser v
Ä Ļ
U P
lGOD lh
tok en
s un
åĽ ¾
' "
Ch ange
YX Nz
/ ></
Âł ÃĲ
ĠIn surance
K S
se curity
Con fig
M od
25 8
li s
sa ve
20 3
Ġp i
Ġ! ==
P hone
uY n
b and
ĠĠĠĠĠĠĠĠĠĠĠĠĠĠĠĠĠĠĠĠĠĠĠĠĠĠĠĠĠĠĠĠĠĠĠĠĠĠĠĠĠĠĠĠĠĠĠĠĠĠĠĠĠĠĠĠĠĠĠĠĠĠĠĠ ĠĠĠĠĠĠĠĠ
v t
) )}
Ø§Ø ¦
Ġf l
47 87
Ġ und
Ġre s
c ing
Ġver sion
ac tu
T witter
33 6
ma le
à¦ ¨
sc ho
le af
a ti
={ },
k k
Ġlo cal
ar ing
U V
tex tarea
Ġg rid
ãģ ı
u M
Ġ login
br ary
so me
rop down
******** ********
ĠM ar
3 15
: ;"
use d
IM G
n z
17 2
"> |</
39 8
M ouse
y c
çī ¹
d on
U F
C or
u sh
ute n
Ġc lick
b la
pear ance
g z
Æ ·
sk i
Q b
33 8
Ġre quired
35 5
hi le
Ð½Ñĭ Ðµ
c la
k p
Ġ du
te ction
04 4
I I
B rand
Ġ location
book s
g m
35 4
ĠE r
E nable
Ġinter nal
] ]
lo y
U G
ĠĠĠĠĠĠĠĠ Ġĉ
BA QE
vi ous
ques tion
ÙĬ Ø¯
Nw O
ro ke
ZG l
ss o
æ ¼
\ .
25 9
Ġ 26
Track ing
Q Q
Ð° Ð¹
enter tainment
à µ
> ');
E w
in dows
ãĢ ĭ
F T
Ġde s
al bum
å¼ Ģ
å® ī
27 6
cat or
b ut
Pro mo
d h
copy right
ate gories
f re
ffe ct
ĠĠĠĠĠĠĠĠĠĠĠĠĠĠĠĠĠĠĠĠĠĠĠĠĠĠĠĠĠĠĠĠ ĠĠĠĠĠĠĠĠĠĠ
18 3
Ð¸ Ð¼
k h
27 8
Ġ4 00
âĢ Ķ
ãĤ Ń
at ur
B G
wdG lvbj
w ho
P e
Down load
ult s
i ra
B N
Y j
24 3
ĠR es
é Ł
I V
Zhb HVl
28 4
Ø ¢
me gamenu
Y m
ÐµÑĢ Ð¸Ð°Ð»
F L
m br
Ver sion
å· ¥
en able
user Agent
ĠV er
L DA
Ġ 38
x hc
ãĢ Ĭ
uYn NwO
pagin ation
ref e
or ds
k om
ch ant
æ ·
Ġs ur
Th is
Ð ¢
ĠĠĠĠĠĠĠĠĠĠĠĠ Ġĉ
separ ator
tin y
Â ¥
li bs
s lug
Ġ ri
bi a
åĲ Ī
d v
3 29
ar c
sh ift
Ġf in
custom er
28 9
en i
o v
ĠâĢ ĵ
ci te
nolog y
Ġ Â«
Ðº Ð¸
sub title
D TD
Ġ 72
ff er
Te aser
Î ´
} ),
Ġ open
in ue
F irst
zo om
vie s
In put
T O
jb GF
C S
":" \/
ams ung
Ġ 250
":{ },"
Ġ-- ><!--
vi p
22 3
lb n
27 7
Î¹ Îº
Ġ 80
A ds
e Var
Col umn
26 8
2 12
column s
logo s
N m
ca li
C w
H older
k Y
H ot
ĠP age
ra g
b p
va ilable
ĠÐ ¡
por tlet
å Ĵ
Ġ large
s al
go og
× ¨
X Q
notic ias
E g
Y our
y y
ru it
c ine
h j
ĉĉĉĉĉĉĉĉ ĉ
x c
Ä ħ
ma te
arrow down
us ers
s ns
Ġc ustom
mi ssion
K e
ĠL a
Ġ Ú¯
D M
Ġstat us
her it
w off
Ġ der
si tem
no unce
B r
se e
Q z
in du
AL AAAAAA
Ġĉĉĉĉĉĉĉĉĉĉĉĉĉĉĉĉ ĉĉĉ
ÛĮ Ø±
ãģ į
interi ors
plat form
S lide
lGODlh AQ
Ø§Ù Ĥ
D om
00 26
( .
P art
t x
ta ge
X a
æĹ ¶
Ġh er
ç ģ
æķ °
H g
Ġ error
ask et
é ķ
37 4
\ "><
å §
re commen
way s
. <
: (
æ Ĵ
mo bi
b or
b on
ro ugh
S tor
na p
en abled
T T
av ings
} "
Ø§ÙĦ Ùħ
tire ment
Ġf ull
t z
Î Ł
data Layer
sol u
çī ©
la ri
Ġ<!-- <
B ack
Ġĉ ĠĠĠĠĠĠĠ
;, &#
H y
se o
B ig
ĠĠĠĠ ĉĉĉ
se p
stor age
t ube
int ro
rt l
Ñ į
Z V
u an
new by
åĲ į
us a
ĠP re
pro ject
S lider
jbGF zcz
a tive
Ġfe ature
house interiors
newby houseinteriors
u th
ĠC an
Ġo ther
Ġas ync
ta li
15 1
A rial
s imple
Ġhe re
i er
E L
14 2
V z
amp ion
ĉ Ġĉ
13 1
digital spy
A Y
W rap
t ur
Sc roll
00 000
wdG lvbiB
C W
fron tend
Ġ transition
pri se
28 7
r f
U D
V ud
ort g
ti ka
Z GF
28 6
ctr l
Ġà¤ ķ
under line
ar io
XM LH
m content
sk a
p v
k n
Ġb u
un a
ren der
lit ary
ç ²
R S
t an
u gu
Clo se
ani me
Ġac cess
t us
N U
blog s
ĠĠĠĠĠĠ ĉĉ
post er
add Service
flag s
re cent
land scape
L ive
hidden Message
ĠU ni
Ġon error
ãĥ ĸ
Ġ ÏĢ
al er
16 04
à¸ ļ
O y
Ġ$ .
mv pd
tool bar
åĮ º
F s
á ŀ
h m
ĠĠĠĠĠĠĠĠĠĠĠĠĠĠĠĠĠĠĠĠĠĠĠĠĠĠĠĠĠĠĠĠĠĠĠĠĠĠĠĠĠĠĠĠĠĠĠĠĠĠĠĠĠĠĠĠĠĠĠĠĠĠĠĠ ĠĠĠĠĠĠĠĠĠĠĠĠ
ag s
vi r
sub ject
to ur
i phone
word press
Ġ1 50
bu g
o h
lish ed
] ]>
Ġdi s
ç ©
q w
Ø ¥
access ories
ti mi
57 0
c gi
la tor
tim ing
define Slot
æ į
E nd
S mall
es k
a id
U i
S u
Ø ¸
f resh
Ġh o
á» ĩ
è Ĳ
I x
inclu des
/ +
æĪ Ĳ
å¿ ĥ
éĢ ļ
IH ZhbHVl
en a
9 80
p at
uti ls
On line
00 4
16 2
D S
\ &
t j
ÃĲÅ ¾
àª ¾
for ce
L ight
t k
k wid
ĠG u
æ ı
tain s
J e
ist ration
57 6
f id
ãĤ ¨
v v
ĠĠĠĠĠĠĠĠĠĠĠĠĠĠĠĠĠĠĠĠĠĠĠĠĠĠĠĠĠĠĠĠ ĠĠĠĠĠĠĠĠĠĠĠĠĠĠĠĠĠĠĠĠĠĠĠĠĠĠĠĠĠ
ie ds
boot strap
a ws
06 48
li da
bo o
B AAE
19 3
Ġbg color
ĠÐ Ł
xx x
on to
Ġ' <
Ġn umber
26 9
ue gos
v ol
ti v
ÛĮ Ùħ
F A
29 4
ĠT ra
int s
produ ction
a di
poli cy
b x
re nd
Ns YXNz
R O
Z E
h ic
W indow
lear n
g ing
Ġre ad
Ġal ert
ãĤ Į
C ard
Th umb
be acon
ä¹ ĭ
06 46
ou ch
36 9
Ġĉĉĉĉĉĉĉĉĉĉĉĉĉĉĉĉ ĉĉ
V e
Ġli ke
r ing
si t
fi li
================ ================
ak ama
Load ed
Ch ar
v at
37 0
y img
Man ager
node Name
V k
åĮ ħ
Ð ĳ
to String
ãĥ ĭ
T ri
ĠÐ °
x h
T B
è °
el le
ca mp
ran ge
R i
Item s
track Page
B log
Ò »
w r
-- -
ä½ ĵ
åĭ ķ
R U
å Ŀ
cl k
M B
æ ¡
me l
pe t
de v
04 2
è£ ħ
Ùĩ Ø§
> |</
f li
n ie
en o
39 4
l um
fi cial
ä¸ ī
fla t
ti tu
pref ix
3 27
A k
] *
Î ķ
am er
ex press
ing le
ALAAAAAA BAAE
linked in
'); "><
æ Ł
Ġ select
B ro
de red
ÙĬ Ø±
a is
NCg kJ
2 17
list ing
åĨ ħ
Pri vacy
É Ļ
E W
in ation
if ieds
re at
ä» ¶
% {
' ],
DI V
V u
or ite
00 5
li ent
({ '
Ġst ar
R M
26 6
4 20
ri ver
$ /
è ²
ĠP o
arti st
37 6
b et
Com ponent
e i
Ġal f
34 8
di tions
key frames
ctr on
ãģ Ĩ
9 70
i pt
Ġth an
Ori gin
to re
é Ķ
A h
fir m
li g
ç ±
I z
ex tra
text field
le an
IG NsYXNz
ch rome
V t
t ml
c lock
ĠE n
Z v
H K
tor rent
content box
u ck
gd mFsdWU
se ssion
man ager
ler i
serial info
ĠĠĠĠĠĠĠĠ ĉ
ĠH o
ce ption
V G
x Y
30 9
/ ><
ig a
7 94
der s
Ġframe border
åı °
add ress
c w
Enable d
/ "></
b ject
à¸ «
b st
ĠÎ º
B M
æĪ ¿
Up date
R D
man ga
36 4
c ht
em it
ÛĮ Ú©
34 9
refer rer
] |
com ing
M icrosoft
light s
Ġs ome
opin ion
ŀ ĭ
ç ĥ
Ġĉĉĉĉĉĉĉĉ Ġĉĉĉĉĉĉĉĉ
ĠI t
Ho oks
Ø§Ø ¡
Ġv e
mb ers
der n
Se e
l tr
, {
M en
38 5
widget s
el s
et ing
Ùĩ Ø§ÛĮ
æľ į
re p
Ġcon tainer
of fice
éĥ ¨
69 6
Ð°ÑĤ ÑĮ
bro adcast
leg al
em ber
å® ļ
life style
ce le
pro gra
åħ ĥ
j g
Y T
C K
Ġ medium
ab e
p end
cer pt
le ague
P h
ĠØ¨ Ø§
ĠÐ· Ð°
w ards
7 68
s lo
Ġ 44
Ġthe ir
= ='
Ass ets
ga in
ĠT op
Ø¨ Ø§Ø±
ho tel
="{ {
;: {&
e q
Ġĉĉĉĉĉĉĉĉĉĉĉĉĉĉĉĉ ĉ
H ow
O ne
Pop up
Z a
66 7
ALAAAAAABAAE AAA
H L
Ñģ Ñı
M g
: \
Inter val
opy right
Ġ ie
w ard
% {-
ä½ ł
æ ¨
] ><
M in
Ġs hape
dem and
V al
Ï ĩ
ready State
in te
ure s
ĠE mail
re set
mo ji
v m
ãģ Ĥ
cont rols
ĠF in
Ġp arent
amp le
Ø§Ø ´
result s
pre mium
erson al
R F
å¥ ½
ref ront
ĠÐ¾ ÑĤ
-- ></
ĠW ith
> |
Ġmo d
omn iture
clu sive
k ids
Ġ active
thumbnail s
al pha
ttp Request
mi x
Ðµ Ð²
di rection
å Ļ
23 1
K X
j m
E P
29 2
H I
se g
14 1
Nw YW
Ñģ ÐµÑĢÐ¸Ð°Ð»
ĠÙħ ÛĮ
F ull
collection s
Ġĉĉĉĉĉ Ġĉĉĉĉĉĉ
Ġ' .
pe ti
3 24
ute s
Mod al
ĠĉĉĉĉĉĉĉĉĠĉĉĉĉĉĉĉĉĉĠĉĉĉĉĉĉĉĉĠĉĉĉĉĉĉĉĉĉ ĠĉĉĉĉĉĉĉĉĠĉĉĉĉĉĉĉĉĉĠĉĉĉĉĉĉĉĉĠĉĉĉĉĉĉĉĉĉ
ĠAc count
" Ā
F unction
Â Ń
men s
ĠN ow
o e
Ow n
path name
og raph
ge o
Ð¸ Ð·
nb c
gb ar
no te
K a
Î Ļ
mi er
ĠS er
O V
read only
Product s
Ä į
E V
XMLH ttpRequest
- [
Î¹ Î±
sho es
Ġw hen
r at
35 9
3 16
Y i
cor d
Ġne ed
M I
n w
reci pes
F j
ç ł
g le
IGNsYXNz PSJ
tr ade
c x
ow ner
An im
ter ms
e very
Ġ es
39 0
% );
W U
A G
ĠH D
place ment
è į
Ġ Ñĩ
v in
P or
Z R
gen re
j h
ques tions
pi res
36 7
google apis
Y n
ĠM on
me tri
trackPage view
li mit
T empla
en codeURIComponent
vali dator
Ð½Ñĭ Ð¹
Bot tom
C allback
çī ĩ
é¡ µ
z ar
ÐµÐ½ ÑĤ
Q i
mo unt
c q
car s
Ġso cial
uYnNwO yZ
Ġma ke
be auty
per case
Q l
88 8
ĠT ag
So cial
Ġ les
00 7
d w
ĠÐ Ĵ
åĮ Ĺ
F rame
M w
Er r
( ?:
38 8
or ange
J P
ate st
ction s
n is
L X
Y s
in formation
à¸ Ĺ
j r
cre en
Rh dG
Ġ 27
Î £
×Ļ ×
=" &#
ÙĦ ÙĬ
con ds
é Ĥ
y x
Ġ/ .
C s
S O
Ġw ho
åł ±
Ġĉĉ ĠĠĠĠĠĠĠĠĠĠĠĠĠĠĠĠ
X P
ãĥ ¥
à¸ ķ
an chor
ta ke
38 7
Ġin formation
And roid
Ġbe st
B i
Ð ĺ
="" />
F k
Q s
e conom
B usiness
no v
, ,
ä¸ ª
åī į
å¤ ĸ
e W
33 4
sitem ap
t ar
L P
is o
2 32
u ol
ref resh
åı ¯
ç ³
er ia
Ġ mar
Se c
Ġout line
è ³
akama i
m R
06 28
Ġ} )(
am eri
G h
44 0
Ø³ ÛĮ
a po
=' #
Ðµ Ð³
ban g
m ir
ä¸ »
b un
ĠPro duct
$ ('.
arrow up
Ġup date
Q y
ĠS p
G lobal
Ë ľ
g ia
Ġa fter
page speed
æ´ »
] &&
ch art
z x
cc c
Ġb ut
me thod
à¤ ķ
ep isode
A cc
la m
pli es
ul tip
3 18
G ame
form s
ĠS ho
z b
é ļ
ĠĠ Ġĉĉĉ
id a
Ð¸ Ñĩ
N um
Ġĉĉĉĉĉĉĉĉĉĉĉĉĉĉĉĉ ĉĉĉĉ
Ā "Ā
Ġ( -
ĠØ ²
Fo cus
åĪ ©
Ð¾Ð ¿
P P
call back
sti cky
Own Property
bo y
S ho
display Name
al k
N L
li ste
34 7
Ġp lay
ãĥĥ ãĤ¯
ĠP r
æĿ ¥
rak uten
i ck
z w
Âł ÃĤ
sw f
17 1
D Y
ÙĪ Ø²
co very
ĠB EG
l ue
z n
Ġco okie
ĠP ar
ui x
ĠĠĠĠĠĠĠĠĠĠĠĠĠĠĠĠĠĠĠĠĠĠĠĠĠĠĠĠĠĠĠĠĠĠĠĠĠĠĠĠĠĠĠĠĠĠĠĠĠĠĠĠĠĠĠĠĠĠĠĠĠĠĠĠ Ġ
ĠÎ ±
Ġ 75
ĠBEG IN
Ð¸ Ñģ
Ġc atch
ta i
ĠÐ ļ
Ġĉĉĉĉ Ġĉĉĉ
Ġ" "
roll er
Ġbro wser
C ity
ÙĦ Ùī
deli very
Ġ je
ãĥ ī
> :
Ġhe ad
enti ty
34 4
çľ ĭ
lu x
Ġ navigation
â Ħ
i h
ta da
éĽ Ĩ
Ġc ard
Ġ ÑĢÐ°
è§ Ĩ
Y Y
; '
3 28
à¤ ²
Ġ$ (".
×ķ ×
Ġs lide
38 9
f g
var i
th ird
Ġ load
G x
Ġdi e
U x
è ©
ie ce
ial s
hal f
Ġpri ce
in terest
ok ing
TA u
åĻ ¨
Uni ted
di tor
ĠP lease
di sp
F b
Ġw hat
x ia
Z g
36 8
Ġlo s
Ġp hoto
39 7
b lick
ĠS ystem
ãĥ ķãĤ
ban king
bb b
w ell
R ow
Ġ men
im i
al o
double click
ç ¶
F u
Ġin dex
x k
Ġa p
ĠV i
Ġcom p
v ide
Ġ Qu
expan ded
R W
q us
N r
à¥ ĭ
Ġy ui
35 8
E s
èĢ ħ
à¸ ª
sho ws
zc GFu
au dio
C ap
er n
ti ali
Ï į
d ar
re quest
Ø¯ Ø±
ĠÐ »
j k
wi ki
= &#
b es
y l
w en
] ).
99 8
Lo cation
ma sk
bir th
"> ãĢĲ
track er
3 14
Ð¾Ð» ÑĮ
":[] ,"
A I
mar tp
ãĤ ª
has OwnProperty
Ã¼ r
h f
26 26
C U
CR I
B s
gir l
); -
9 60
w m
ins ide
Set tings
å® Ŀ
uc cess
N Y
ro le
Ï Ĩ
áº ¿
Ġp anel
Read y
dis ney
00 8
39 6
m il
J t
J v
Ð° Ð²
esp n
Q U
10 80
ĠS a
+ /
li te
inter nal
are n
ss e
Stor age
s ame
put er
n n
è¦ ģ
Ġ il
el lipsis
class ifieds
3 13
Ġsho uld
arrow left
$ .
S Y
ri e
re di
Ob j
Ã ¨
ĠĠĠĠĠĠĠĠĠĠĠĠĠĠĠĠĠĠĠĠĠĠĠĠĠĠĠĠĠĠĠĠ ĠĠĠĠĠĠĠĠĠĠĠĠĠĠ
37 9
x link
he art
)} );
w z
ka XY
I X
P OST
pol y
ab y
F y
h q
é ©
ĠĠĠĠĠĠĠĠĠĠĠĠĠĠĠĠ Ġĉ
arrow right
sup ports
ar ies
/- /
p n
> &#
Ġ' //
Ġh over
70 1
Î ¤
T X
ad get
ĠM ark
om i
Con text
Ġma y
um a
ĠM i
usi con
ãģ ¡
light box
stat usicon
Target ing
cl r
pati ble
E d
ex cerpt
y in
38 6
fa q
z Y
w l
j or
> >
g lyphicon
z hi
tick ets
ir t
Co untry
åĮ ĸ
li ca
ĠO r
ĠÃ ł
e ye
u ght
Ġst roke
E Q
P ress
C b
K o
go u
dash er
ut sch
+ (
ãĥ Ĩ
64 8
Ġvisi bility
an guage
sub category
"> Ö
T im
wi sh
sta ur
tr act
al la
Ser ver
Head line
tp l
æ Ĳ
ÐµÐ» ÑĮ
29 3
M f
D b
ri t
K CQkJ
16 1
Ġbe en
ap pearance
Î± Î¹
L ife
au k
R L
ran king
æĺ Ł
ĠService s
Ġf av
notic ia
_ /
Ġvali d
Z x
laim er
5 05
Ø§Ù Ĭ
Ġt ri
hu ff
O p
Ġb ack
Ã ¥
pref etch
//////////////// ////////////////
m ade
ĠĠĠĠ Ġĉĉĉ
share r
éĻ Ĳ
å¼ ı
ab er
24 2
J j
> ';
u j
è ¥
th ree
ãĥ Ĳ
l q
sc ar
ly wood
Ġdi rection
sa les
scho ol
Å ¼
D OM
36 6
h it
} </
Ġw orld
ĠO ut
áº ¡
Ð ĵ
au di
Ġ" -
g lo
( \
00 6
Com pany
r df
re lease
O k
à¦ ¬
inter national
T L
k now
da ys
Off set
R C
Y o
li mg
Ġh is
ver sity
37 7
por ate
t weet
Ġ Ċ
34 6
M t
ft ware
no tification
A W
Ġg i
s yn
co pe
æ³ ķ
gra ve
A v
care t
state change
i w
Ùħ ÙĨ
ĠĉĠĉ Ġĉ
Ġ "></
W a
Ġ Ø§ÙĨ
Ġg lobal
Ø§Ø Ń
ads by
is a
27 3
J k
ab i
mer a
P ic
d ns
ti r
h z
pi ck
Ġ __
99 0
C c
000 1
de por
ready statechange
18 2
co lo
Ġ jewelry
' }
Ġ ke
( _
org an
an n
ag ent
99 2
W ar
av ing
en gine
images rc
çĶ ·
ä¹ Ĳ
adsby google
N et
s wi
3 25
C ri
}. _
Ġs k
G a
c ie
st an
Z SB
é ľ
c in
\" \
Ġp h
la z
solu tions
T d
åº ¦
k YX
di on
K f
Ġe le
ãĥ £
ĠJ e
R ating
ww Lj
ĠN av
3 17
Ġĉĉ ĠĠĠĠĠĠĠ
Ġy t
Ð¾Ð ¶
ĠØ µ
Ġus ing
ex per
fi er
ur y
tr b
ath li
ce d
im um
ĠS pe
4 75
å Ħ
'] );">
="_ _
ĠT witter
so s
U Y
m Y
po d
urn al
B w
à¹ Į
è¶ ħ
H N
ãģ ł
char set
S G
19 1
ä¿ Ŀ
è ı
ĠG A
ĠC ode
æ° ´
or th
ĠP olicy
Ġse c
' ">
Ø§Ø± ÛĮ
P W
od s
ãģ ķãĤ
ĠC ontent
t L
Ġĉĉĉĉĉĉĉĉĉ Ġĉĉĉĉĉĉĉĉĉ
ĠSt art
é ĵ
win dows
T xt
F rom
u IHZhbHVl
Ø ¦
v u
ä¸ ĩ
y d
h ub
= #
ro ws
F ind
å± ±
cre ative
bab a
Ġon load
Ġ group
con version
te ct
fe ssion
M l
c en
V B
è ¢
Ġ 70
38 4
uYnNwOyZ uYnNwOyZ
R G
T erms
el y
å½ ±
b em
å »
ê °
tr on
page ad
df p
or o
F loat
64 6
Ġc ase
ĠA dd
el f
X F
c j
E T
v ac
M F
æĬ Ģ
) ||(
im agen
W C
ICAgICAgICAgICAg ICAgICAgICAgICAg
edu cation
L ast
à¤ ¸
ha i
ä¸Ń åĽ½
multi media
Ò µ
ĠÐ¿ Ð¾
al le
ar r
ĠÐ ľ
BL IC
ee e
u li
Ġal low
Ġ xt
E spa
R et
Ġp a
Ð» Ð¸
Ð¾Ð³ Ð¾
ma gazine
gir ls
ID x
à¹ ģ
wo o
V p
Îµ Î¹
Ġh ow
Te st
Ð £
S K
po ol
à¸ Ħ
ance s
div ider
ê ¸
dis qus
o om
q z
Ġscroll ing
CRI PT
ĠA mer
Ġch ange
LW Nv
#### ####
el come
ĠÙĩ Ø§ÛĮ
vers al
m ad
u er
çĽ ®
") );
bo und
\/ ","
ë ĭ
Ġ ÑģÑĤ
it er
athli tika
part ment
p ra
ss a
à¦ ķ
ĠE uro
j un
Â ģ
ud ent
Ġc a
com po
3 26
J a
20 11
Ġ sprite
Â ¢
le ader
37 8
Ġ1 000
åį Ĺ
screen shot
anim ate
ĠĠĠĠĠĠĠĠĠĠĠĠĠĠĠĠĠĠĠĠĠĠĠĠĠĠĠĠĠĠĠĠĠĠĠĠĠĠĠĠĠĠĠĠĠĠĠĠĠĠĠĠĠĠĠĠĠĠĠĠĠĠĠĠ ĠĠĠĠĠĠĠĠĠĠĠĠĠĠĠĠ
ir ts
3 12
Ø¨ Ùĩ
cle an
Ġ key
Ġ à®
br on
re search
X C
no u
can cel
mal ink
time out
ĠØ§Ø³ Øª
äº ¬
H over
AC H
F d
S L
U k
ãĥ ģ
A i
Æ° á»
G i
27 2
ĠÐ¾ Ð±
S TA
ri l
ri ch
Ġ ("
" ){
') );
="{ &
F l
() },
Ġg lyphicon
Ð¸ÑĤ ÑĮ
Ø± Ùħ
ap an
x in
sta tion
A BA
De tails
o se
ä¸ ĸ
16 00
Ġfor um
åĳ Ĭ
g on
se lida
57 5
è¥ ¿
69 7
3 19
we en
F lag
ÙĪ ÛĮ
ga ze
v k
3 39
ĠÎ ¼
$ (".
áº £
åĪ °
=/ ^
Ġco ords
z hu
ma st
proto selida
be ta
ä¸ ĵ
K L
s im
F S
Ġdo main
ri a
4 68
ui te
åĬ Ľ
è¡ ¨
N N
z j
âĦ ¢
C r
70 9
Å¡ ÃĲ
æ¬ ¾
B ra
ot re
ĠM ath
ha o
inclu de
ç¥ ŀ
V s
d in
ĠP orn
åŁ İ
an y
Ġ str
r ide
ÑĤ Ð¾
Ġs upport
Ã¡ s
åº Ĺ
âĢŀ âĢĵ
âĤ¬ âĢĿ
K y
z s
A li
ute d
à¦ ²
le nt
Z p
E mp
N W
] &&(
mi se
ÃĲÅ ½
à¦ ¤
00 9
auto complete
NC i
ĠĠĠĠĠĠĠĠĠĠĠĠĠĠĠĠĠĠĠĠĠĠĠĠĠĠĠĠĠĠĠĠĠĠĠĠĠĠĠĠĠĠĠĠĠĠĠĠĠĠĠĠĠĠĠĠĠĠĠĠĠĠĠĠ ĠĠĠĠĠĠĠĠĠĠĠĠĠĠĠĠĠĠĠĠĠĠĠĠĠĠĠĠĠĠĠĠĠĠĠĠ
Ð¸ ÑĢ
ĠL ife
cy cle
>< \/
s am
e scape
Ġp ath
De scription
x w
F D
ĠC re
E a
ok u
R y
R Y
Ġfi le
åĽ ŀ
r ac
ha ir
06 39
lo re
ĠEr ror
t g
=" ",
k ate
ĠP er
web app
can vas
T C
ãĥ ĩ
re y
te o
Ac tive
L B
14 64
O u
06 29
remove EventListener
Ġv i
for got
ĠB y
C al
Re spon
P ay
u ff
åı ¸
hi pping
verti se
O m
] }
con cat
ĠG et
ĠC lo
ĠY a
O ther
J f
ãĤ ģ
74 0
v end
p df
create d
Templa te
fi re
5 12
re ve
B lack
ti mer
Ch al
n k
ste p
de t
inter net
ĠĠĠĠ Ġĉĉĉĉ
c G
M s
ho ma
Fi le
R ate
Pub lished
b nR
soft ware
ac cor
ĠC enter
Î ¸
id en
res olution
åĴ Į
M x
V j
th at
ä¸ º
at tribute
lo cali
Ġm i
Ġin fo
J n
fo ur
æĪ ĺ
ĠO ne
S H
X z
un es
Q x
at ter
an ta
Ø§Ø ¬
Ġmo st
tp age
Pro file
ĠS TA
B uy
re lic
éģ ĵ
p isode
ĠĠĠĠ ĉĉĉĉ
il le
0 10
h avi
Ġ translate
cm p
j j
v l
|| _.
Pub lic
p ers
Ġ' &
t ree
Â º
He alth
Q ui
T ouch
å ¨
ãģ ĳ
d an
Ġĉĉĉ ĠĠĠ
ou th
zi one
k I
tri m
ta W
C e
mo b
Type s
> [
l st
F Y
A f
e grave
Ġ Û
Ġin clu
lNz Q
20 10
ve sti
ist an
Ġc al
lNj U
h um
can on
Q w
t f
y en
ĠP U
Ġ5 00
18 1
Mo dule
feed back
Ġm t
77 7
pa per
ç§ ĳ
bu zz
44 6
N SU
T G
Ð¾Ð ·
',' ','
I W
Ġ 45
åĬ ¡
R s
ĠÐ´ Ð»Ñı
host name
à¤ ¤
å¹ ¿
ca ps
ĠĠĠĠĠĠĠĠĠĠĠĠĠĠĠĠĠĠĠĠĠĠĠĠĠĠĠĠĠĠĠĠĠĠĠĠĠĠĠĠĠĠĠĠĠĠĠĠĠĠĠĠĠĠĠĠĠĠĠĠĠĠĠĠ ĠĠĠĠĠ
/ =
D C
h g
I O
æľ Ł
H a
5 50
P M
ĠØ§ÙĦ Ø£
o sh
il der
30 1
w k
Ġ option
c Do
Ġm ust
Me di
I K
on readystatechange
å ĸ
w hy
Home Page
for d
ĠĠĠĠĠĠĠĠĠĠĠĠ ĉ
Ġp w
Ġ den
ÙĦ ÙĪØ¯
Ø¯ Ø§ÙĨ
com ic
æĢ §
le ct
amp a
è´ Ń
ma i
26 2
P arent
A ler
65 6
57 4
pri l
De tail
éĿ ¢
on click
mo te
T OP
Ġ' '
an nounce
; _
new relic
ti que
ãĤ ¦
66 5
},{ &
C d
Ne xt
ac tivity
.$ _
Option s
Ġĉĉĉĉĉĉ Ġĉĉĉĉĉ
last post
Ġf r
S y
GE T
ĠSe arch
Ġse cond
key Code
scroll Top
+ -
25 1
ç ¦
W i
q l
ri end
drop box
æ ¶
ra ft
O U
12 00
å¹ ³
Service s
èµ ·
m h
kYX Rh
tu al
ĠĠĠĠĠĠĠĠĠĠĠĠĠĠĠĠĠĠĠĠĠĠĠĠĠĠĠĠĠĠĠĠ ĠĠĠĠĠĠĠĠĠĠĠĠĠĠĠĠĠĠĠĠĠĠ
ul ta
ub er
ograph ic
Ġ 29
x f
ĠØ§ÙĦ Ø¹
add this
N p
Ġa ss
. ">
l ub
si e
Ø¯ ÛĮ
ĠT ube
ĠG e
ic id
86 7
H Z
ameri ca
Ð¸ Ð´
tech nology
Ð° Ñģ
J A
in Place
Ã© s
ĠRe g
Ġ log
cor ner
T able
lo an
ali z
S ans
gr ade
w here
ĠIm age
ĠP M
åĥ ı
k c
as a
è ±
mo tor
æĺ İ
c ulture
Ġe very
bu h
H H
JS ON
illi on
MT k
ãĥĥ ãĥĪ
Log on
cDo vL
ak u
Ú© Ø³
h Z
ĠĠĠĠĠĠĠĠĠĠĠĠĠĠĠĠĠĠĠĠĠĠĠĠĠĠĠĠĠĠĠĠ ĠĠĠĠĠĠĠĠĠĠĠĠĠĠĠĠĠĠĠ
parse Int
f en
) <
Bo ok
M m
ist ory
C P
on error
åħ ³
M W
85 9
ans wer
R ender
ti vo
Ġex per
ìĿ ´
ĠÐ ł
ĠP hoto
5 16
ab c
di l
ÏĦ Î¿
b ill
Ġ its
ç³ »
For um
o y
Ġst ory
æĪ ı
82 11
Ġ Ø±ÙĪ
à ²
Ġre move
lan ce
ĠÎ µ
poli tics
respon d
U H
ãĥ³ ãĥĪ
() )
K z
b ay
="/ "
Ġl tr
und s
RhdG E
di es
// /
Ġch ild
h ol
2 11
Ġ sign
sa W
N V
70 8
ĠÐ½ Ðµ
Ø§Ø ®
ĠĉĉĠĉĉ ĠĉĉĠĉĉ
we i
sc rol
I Q
24 1
çķ Į
X article
ĠB ar
. ",
( ;
-- ><!--
Ġc f
ance d
Ġf ind
banner s
Ġun a
Ġw ork
et c
ĠD a
ÐµÐ½ Ð¸Ñı
r v
ĠØ ¥
i ro
for t
é¦ĸ é¡µ
or ity
Ġ https
ĠĠĠĠĠĠĠĠĠĠĠĠĠĠĠĠĠĠĠĠĠĠĠĠĠĠĠĠĠĠĠĠĠĠĠĠĠĠĠĠĠĠĠĠĠĠĠĠĠĠĠĠĠĠĠĠĠĠĠĠĠĠĠĠ ĠĠĠĠĠĠĠĠĠĠĠĠĠĠĠĠĠĠĠĠĠĠĠĠĠĠĠĠ
Ho tels
E Y
Ġb ig
() "
z ie
off ers
Ġc he
ta o
Page s
99 7
;} @
Z A
us auk
Ġon Mouse
30 3
%; "></
Ø§ÙĨ ÛĮ
ni k
= ["
I v
":" //
K PG
, \
C y
ĠSh op
eng lish
å· ŀ
ri o
Ġan im
ri val
Event s
sp o
w all
en c
ĠIn c
mun do
33 2
P D
Ġ Name
èµ Ħ
st on
(" <
ä» £
en to
ight s
N g
as ing
sa fe
à¹ Ħ
ta k
ub ar
ver ification
<!-- [
F Q
} };
Ġ ÑĦ
gro w
promo tion
bi o
éĹ ¨
L es
L ine
30 2
S port
ob ao
55 6
74 8
pub Home
R V
ĠS ign
P k
we some
w u
yre gb
å ²
bron ze
M X
p ac
é ł
50 7
88 5
Com patible
é Ĵ
sta y
To ol
On ly
Lay out
H elvetica
45 4
ad em
ac ter
ee k
P O
V a
ÑĢÐ° Ð½
) "></
}} @
ir l
li ce
Z z
to o
ĠM y
Re port
ad ditional
ï¼ģ </
ta d
ĠP e
NC E
B W
Ġb usiness
9 40
Ġt xt
ç ĭ
à¤ ®
q s
L Y
} },
³ </
it or
Sta tus
Ġf b
Ġp os
C OM
T U
Ġf lex
ĠL i
deal news
ĠP a
lNj k
' />
' +'
H idden
ĠH TML
E m
K K
04 1
04 30
Z Y
IC K
Ġman ual
OD U
disc laimer
Ġĉ ĠĠĉ
, [
ol l
Øª ÛĮ
Te ch
ip s
ĠĠĠĠĠĠĠĠĠĠĠĠĠĠĠĠĠĠĠĠĠĠĠĠĠĠĠĠĠĠĠĠĠĠĠĠĠĠĠĠĠĠĠĠĠĠĠĠĠĠĠĠĠĠĠĠĠĠĠĠĠĠĠĠ ĠĠĠĠĠĠĠĠĠĠĠĠĠĠĠĠĠĠĠĠ
s ab
h v
/ ","
] ="
Ġfi x
"} );
D ay
åı £
at t
fan cy
R pb
å ¢
H S
ä» ·
be gin
jo urnal
ĠĠĠĠĠĠĠĠĠĠĠĠĠĠĠĠĠĠĠĠĠĠĠĠĠĠĠĠĠĠĠĠĠĠĠĠĠĠĠĠĠĠĠĠĠĠĠĠĠĠĠĠĠĠĠĠĠĠĠĠĠĠĠĠĠĠĠĠĠĠĠĠĠĠĠĠĠĠĠĠĠĠĠĠĠĠĠĠĠĠĠĠĠĠĠĠĠĠĠĠĠĠĠĠĠĠĠĠĠĠĠĠĠĠĠĠĠĠĠĠĠĠĠĠĠĠĠĠĠĠĠĠĠĠĠĠĠĠĠĠĠĠĠĠĠĠĠĠĠĠĠĠĠĠĠĠĠĠĠĠĠĠĠĠĠĠĠĠĠĠĠĠĠĠĠĠĠĠĠĠĠĠĠĠĠĠĠĠĠĠĠĠĠĠĠĠĠĠĠĠĠĠĠĠĠĠĠĠĠĠĠĠĠĠĠĠĠĠĠĠĠĠĠĠĠĠĠĠĠĠĠĠĠĠĠĠĠĠĠĠĠĠĠĠĠĠĠĠĠĠĠĠĠĠĠĠĠĠĠĠĠĠĠĠĠĠĠĠĠĠĠĠĠĠĠĠĠĠĠĠĠĠĠĠĠĠĠĠĠĠĠĠĠĠĠĠĠĠĠĠĠĠĠĠĠĠĠĠĠĠĠĠĠĠĠĠĠĠĠĠĠĠĠĠĠĠĠĠĠĠĠĠĠĠĠĠĠĠĠĠĠĠĠĠĠĠĠĠĠĠĠĠĠĠĠĠĠĠĠĠĠĠĠĠĠĠĠĠĠĠĠĠĠĠĠĠĠĠĠĠĠĠĠĠĠĠĠĠĠĠĠĠĠĠĠĠĠĠĠĠĠĠĠĠĠĠĠĠĠĠĠĠĠĠĠĠĠĠĠĠĠĠĠĠĠĠĠĠĠĠĠĠĠĠĠĠĠĠĠĠĠĠĠĠĠĠĠĠĠĠĠĠĠĠĠĠĠĠĠĠĠĠĠĠĠĠĠĠĠĠĠĠĠĠĠĠĠĠĠĠĠĠĠĠĠĠĠĠĠĠĠĠĠĠĠĠĠĠĠĠĠĠĠĠĠĠĠĠĠĠĠĠ ĠĠĠĠĠĠĠĠĠĠĠĠĠĠĠĠĠĠĠĠĠĠĠĠĠĠĠĠĠĠĠĠĠĠĠĠĠĠĠĠĠĠĠĠĠĠĠĠĠĠĠĠĠĠĠĠĠĠĠĠĠĠĠĠĠĠĠĠĠĠĠĠĠĠĠĠĠĠĠĠĠĠĠĠĠĠĠĠĠĠĠĠĠĠĠĠĠĠĠĠĠĠĠĠĠĠĠĠĠĠĠĠĠĠĠĠĠĠĠĠĠĠĠĠĠĠĠĠĠĠĠĠĠĠĠĠĠĠĠĠĠĠĠĠĠĠĠĠĠĠĠĠĠĠĠĠĠĠĠĠĠĠĠĠĠĠĠĠĠĠĠĠĠĠĠĠĠĠĠĠĠĠĠĠĠĠĠĠĠĠĠĠĠĠĠĠĠĠĠĠĠĠĠĠĠĠĠĠĠĠĠĠĠĠĠĠĠĠĠĠĠĠĠĠĠĠĠĠĠĠĠĠĠĠĠĠĠĠĠĠĠĠĠĠĠĠĠĠĠĠĠĠĠĠĠĠĠĠĠĠĠĠĠĠĠĠĠĠĠĠĠĠĠĠĠĠĠĠĠĠĠĠĠĠĠĠĠĠĠĠĠĠĠĠĠĠĠĠĠĠĠĠĠĠĠĠĠĠĠĠĠĠĠĠĠĠĠĠĠĠĠĠĠĠĠĠĠĠĠĠĠĠĠĠĠĠĠĠĠĠĠĠĠĠĠĠĠĠĠĠĠĠĠĠĠĠĠĠĠĠĠĠĠĠĠĠĠĠĠĠĠĠĠĠĠĠĠĠĠĠĠĠĠĠĠĠĠĠĠĠĠĠĠĠĠĠĠĠĠĠĠĠĠĠĠĠĠĠĠĠĠĠĠĠĠĠĠĠĠĠĠĠĠĠĠĠĠĠĠĠĠĠĠĠĠĠĠĠĠĠĠĠĠĠĠĠĠĠĠĠĠĠĠĠĠĠĠĠĠĠĠĠĠĠĠĠĠĠĠĠĠĠĠĠĠĠĠĠĠĠĠĠĠĠĠĠĠĠĠĠĠĠĠĠĠĠĠĠĠĠĠĠĠĠĠĠĠĠĠĠĠĠ
é Ń
6 80
E uro
j n
Ġ tra
ay a
Fe ed
m w
Ġb i
mi ss
ington post
fili ate
c ml
&& _.
mo us
ç« Ļ
ond on
Ġp art
ĠP ost
xz q
Ñĥ ÑĤ
æĹ ħ
50 9
ie t
33 1
ari os
ac a
ĠĠĠĠĠĠĠĠĠĠĠĠĠĠĠĠĠĠĠĠĠĠĠĠĠĠĠĠĠĠĠĠĠĠĠĠĠĠĠĠĠĠĠĠĠĠĠĠĠĠĠĠĠĠĠĠĠĠĠĠĠĠĠĠ ĠĠĠĠĠĠĠĠĠĠĠĠĠĠĠĠĠĠĠĠĠĠĠĠ
id ad
Ġb log
mi sc
Q a
z ion
cr umb
äº Į
ig ital
i ze
Ġvideo s
M V
{ \"
Q o
close btn
) "><
s box
") )
F z
set Targeting
Vud HJ
39 3
B ase
L anguage
æ »
çĥ Ń
d g
ĠĠĉĉĉĉĉĉĉĉ ĉ
U ti
cate gor
Spry Assets
ĠĠĠĠĠĠĠĠĠĠĠĠĠĠĠĠĠĠĠĠ Ġĉ
Ġre spon
] ?
Ā =
con tains
gener ic
Ðµ Ð·
ĠJ ava
bl ing
ĠP lay
we dd
y on
Trans form
% ;">
la dy
Å Ľ
di d
ur ing
è® ¡
Ġ 64
is on
ho u
Spry Validation
84 5
na s
el low
J b
); "><
ru le
): (
Ġe st
j us
wa ve
point s
ĠĠĠĠ Ġĉĉĉĉĉĉ
Ġclo se
Ġh igh
M DE
r X
ĠĠĠĠĠĠĠĠĠĠĠĠĠĠĠĠĠĠĠĠ ĉ
S ports
f D
æ Ĥ
ç ı
an ks
N F
u do
W l
l on
){ }}
44 3
DQ og
Y w
esk top
ri ca
FF F
re k
05 5
il ls
? _
ol f
75 4
Ġl ong
" ].
quire ments
È «
J G
m z
con trib
Feature d
Ð¸ ÑģÑĤ
)) :
Or der
J h
j uegos
Ð½ Ð°Ñı
Ġv al
b D
arc ade
s lick
ä» ¥
çŁ ¥
q t
Ġ ('
Q k
Be st
Ġset Timeout
34 3
Øª Ùĩ
" "
ÙĨ Ú¯
ĠĠĠĠ ĉĉĉĉĉĉ
d x
ãĥ Ĭ
in er
74 6
if ic
b ate
check out
ä¼ ł
C p
( ["
W P
Ġ script
26 1
cour se
/ ',
à® ¿
æĻ Ĥ
çĲ ĥ
i la
Q m
first Child
picture s
ra s
| &
ĠĠĠĠĠĠĠĠĠĠĠĠĠĠĠĠĠĠĠĠĠĠĠĠĠĠĠĠĠĠĠĠ ĠĠĠĠĠĠĠĠĠĠĠĠĠĠĠĠĠĠ
Eng Name
Ġĉĉĉĉĉĉ Ġĉĉĉĉĉĉĉ
|| {
06 3
06 7
cu lator
Ġp ay
C enter
ç² ¾
page view
66 0
84 8
ye S
im o
Ġt er
cl one
Ġnav bar
ì ł
32 3
J c
th or
ãĤ º
lass es
ĠS ex
\\ \\
ãģĹ ãģ¦
æ¸¸ æĪı
26 3
" }.
T N
æĦ ı
Ġ 255
H i
page Name
s j
Ï İ
Ġs w
ne x
__ _
ç» ı
0000 0000
æĸ Ļ
fo x
çľ Ł
Ġ download
ĠA t
q f
Ġh ours
P c
fri end
ma zon
P layer
ta t
Cre ate
Se cond
ALAAAAAABAAEAAA IC
, \"
ĠÙħ ÙĪ
() :
C ON
ok e
canon ical
M v
NCi Ag
åħ¬ åı¸
olu tions
Ġa vailable
Â ´
="/ ?
ãĥ ĳ
, ["
Ġin to
64 5
S creen
scrol lable
6 50
what s
ct lb
ĠW orld
ctlb buh
C he
F ollow
Ġ website
B hb
w as
ge ek
( ","
ãĥ ł
D y
I lN
æİ ¨
4 19
ĠÏĦ Î·
ra in
Ġge ographic
M c
Øª Øµ
ÏĦ Î±
D r
ãĤ £
æķ Ļ
F U
ta sk
Ġ day
ãģ£ ãģ¦
K Y
an do
Ġĉĉĉĉĉ Ġĉĉĉĉ
Ġ game
Ù Ģ
bot s
b am
g ori
WV ud
na tion
fr m
çİ ĭ
C all
è »
Ùħ ÛĮ
ch ampion
àµ į
æ ©
ĠW atch
press ion
èĭ ±
a ff
Í ¼
me mbers
Ġto ol
F t
K R
Ġ next
Ti le
over view
n id
ĠS ite
æ º
OR T
0 12
Ġda ys
resiz able
pw qa
I Y
ãĥ §
99 6
amazon aws
Ġa gain
èģ Ķ
Ñĥ ÑĢ
Ġme ssage
publish ed
li ber
çİ °
akamai hd
pre vious
6666 66
? '
u Z
tick er
Ġproduct s
N R
U U
67 6
47 9
à« ĩ
s ong
Ġitem s
Ġpar se
d C
yu cs
35 3
fb q
smo o
ra w
g ent
ow l
fr ance
Ġ logo
Ġh and
ĠØ ·
m ortg
ãĥ¼ ãĥĪ
ti f
28 3
lNj E
V h
vo ice
Over lay
af fic
Tra vel
ĠG ame
na m
Pj w
si x
âĤ¬ Â¡
Å¾ ÃĲ
ME NT
èī ²
op er
dimen sion
ho tels
iz ation
R SS
ut ter
cre t
H Y
80 9
Ġ teaser
hic le
gbq fb
Ġthe y
lock ed
Ġj ust
P I
pa gation
p are
z ing
7 50
g mail
75 6
Ġmon th
L IN
G w
S CRIPT
Z s
æŀ ľ
Ġi co
Ġdo es
sign In
HR w
G k
99 5
ĠD is
C SS
Ġ entry
B n
do be
A ir
Ïģ Î±
bul let
na tive
sk ip
de mo
no tice
à¤ ¯
ÃŃ a
op up
K D
b asket
2016 0
ĠA M
404 040
A GE
Ð° Ð·
( &#
ĉĉĉĉĉĉĉĉ ĉĉĉ
], ["
] ){
60 8
d rive
fe ct
J u
ph ones
J D
Ġ< !
id o
Ġ' ,
mic ro
Color str
pt ure
ä» Ĭ
l ng
y p
ÑģÐº Ð¸Ð¹
04 35
pol l
70 7
ĠPU BLIC
query Selector
P Y
r g
æŃ £
z g
"> $
Ġĉ ĠĠĠĠĠĠĠĠĠĠĠ
S rc
O X
Ġf lag
Ð° Ð´
metri cs
(); "
nd s
201604 25
ni ck
34 2
U u
4 64
28 2
v f
Ð Ħ
çº ¿
en chant
ĠT ran
MA X
" +"
H ide
M ember
St ory
ĠMo bile
04 5
ER S
Ïģ Î¿
Re al
57 8
st s
Le vel
Ã¼ n
06 5
Ġ6 00
coup on
u Pg
å¸ ĥ
iP hone
é ĥ½
ĠÄ °
> /
Ġ. _
åľ º
ic n
mat er
plan ning
d ad
slide s
ç¤ ¾
Â ¹
"> -
n p
44 7
ĠSt ar
ch es
pro spect
F ore
sk u
Ġĉĉĉĉĉĉĉĉĉĉ Ġĉĉĉĉĉĉĉĉĉĉ
R ed
Ġ ol
bi an
bil der
( //
K b
at ri
be be
æĹ¥ æľ¬
lNz M
N b
Ġ options
in y
E CT
N Q
m ing
vend or
è ĥ
M R
O O
è® ¾
P oli
Ġs ide
Ġin cre
l bl
P lus
] ],
la d
sub str
Ġfil ter
E AAAA
li kes
men to
E VE
å® ¢
sell er
å± ķ
char At
ĠS ub
pro cess
> ");
_ "
Ġ ="
æĬ ¥
Ð² ÐĤ
de velop
ĀĀ ĀĀ
P X
in ci
100 3
o z
è º
Ġp erson
ĠB usiness
pay ment
exp and
ro man
accor dion
H k
wa it
ãģĹ ãģŁ
Aler t
ÙĬ ÙĦ
F ly
45 9
Anim ation
3 22
ãģ ¤
Lm Nvb
Ch annel
F W
35 2
åĲ Į
([ ^
Ġ" //
CQ k
4 14
V w
cc er
q d
8 75
ĠE nter
) ","
j y
n v
ut s
ï½Ĺï½Ĺ ï½Ĺï½Ĺ
F G
J z
i v
ci ones
de bug
er ing
pass wd
con ten
Ð½ Ð¸Ðº
) ,"
åİ Ł
Ġ à¶
di st
Ex ception
5 68
44 9
d ress
Ġn on
55 8
Ġ[ "
ĠJ S
C ategories
57 7
Ñĥ Ð´
Ġmo dule
Com ments
H as
du cation
Ø¯ Ùĩ
C ss
me tro
sis tent
S ource
å Ķ
à¸ ¸
Ġ' #
4 77
SS L
tick et
737 373
ck ets
ship s
ĠP lus
Ġw in
L TAu
ru i
< Ā
ac tor
Ġd ropdown
}} "
9999 99
Ġsh op
ĠÐ Ķ
Ġk now
ÐµÐ½ Ð¸Ðµ
$ ("
J PG
ĠS u
J Z
po wer
Ġ Ñį
il s
Ġ er
Ġb anner
é¢ ĺ
a go
ID E
n ment
cate d
> Ā
H h
W indows
Ġm iddle
A p
C lient
87 8
Cont rol
sp ry
0 15
S C
Â ¿
35 1
ren dered
ãģ ¿
Ġ tracking
si ght
ol x
lNj M
é£ Ł
d ri
an da
op timi
inst all
4 60
n x
p as
ì Ĭ
si c
Ġp oli
12 80
86 8
z f
ss en
mic rosoft
} }.
$ ('
Ġh entry
Res ource
lap sed
n ia
p ure
x Lj
Ġw hich
èĬ ±
éĸ ĭ
J p
L V
ç¨ ĭ
ti er
M G
E I
Ġthe m
J W
Q T
44 5
05 1
D rop
a ura
88 7
woo commerce
çĦ ¡
sto res
h w
tag Name
E v
g as
ĠE ng
Ġservice s
ck t
laz ada
+ </
m uni
rt g
J Y
à¸ °
åİ ¿
esti val
tri p
Ġ$ ('
Ġf ade
ĉĉĉĉĉĉĉĉ ĉĉ
ĠH elp
K g
iz ed
g ree
Ac cess
Ġ" @
ĠĠĠĠĠĠ Ġĉ
ch allenge
U a
ar ge
Reg ister
F f
ê ³
05 4
') )
ĠMe dia
F c
æł ¼
ĠW ar
Ġb uy
Ch allenge
ãģĻ ãĤĭ
è§ £
ç ·
U B
ãĥ Ł
50 8
ĠB u
84 6
O a
ak i
ĠAnd roid
te k
li m
nb a
R R
Ġm s
Ġ Ùĥ
ĠR a
: /
Ø³ ÙĬ
ì Ĺ
Ġ í
F lash
ma tion
Ġel lipsis
65 8
sig ned
" };
Pro pagation
ang er
çĪ ±
; },
ĠB lack
åĩ »
04 6
F I
H ER
á» ĳ
. ";
r r
ast Click
è¯ Ħ
Ġc i
ctron ics
04 38
E z
Z e
sp inner
J q
S te
un ded
ce ive
67 8
ro y
Ya hoo
U C
M H
R m
37 2
f ang
Ø± Ùģ
Ġĉĉĉĉĉ Ġ
Ġre d
57 9
Ġf js
ster n
sc u
Ġ" #
){ "
P os
so red
cra ft
d D
Ð¸ ÑĨ
ele ct
éĩ į
K i
Ġli ght
a HR
au x
/ &
F n
b ull
Visi tor
havi or
æ ¢
aol cdn
Ġ"- //
ĠA ir
à¦ ®
al low
ĠD ay
U t
ĠP assword
è¨ ĺ
bnR yeS
j um
06 0
90 9
àª °
U X
W omen
m usi
Ġ4 6
ren ch
14 87
ag g
go to
Ø¯ ÛĮØ¯
åı ·
B c
] (
Øª ÙĪ
ĠIs lands
S ale
55 9
Ar row
q m
ÏĦ Î·
martp hone
hb m
q h
Ð ¤
34 1
fin ite
T b
D w
ref ox
Ġo dd
locali zed
84 0
æ £
97 8
pack age
Ġla s
04 7
ze bra
Ġ gb
In valid
j ump
g ate
k le
F h
éĽ »
F ran
Google Analytics
Ġ] ]>
ar o
4 85
f ol
80 7
C X
P y
d td
wi re
Ver ify
çī Į
ĠSta tes
87 7
ãĤ »
In it
Ġĉ ĠĠĠĠĉ
ĠF i
Y p
Ġga mes
Ġre peat
pubHome Pro
G r
H f
ul u
Øª Ùħ
filter s
6 35
à¸ ¹
update d
gif t
Ð°Ð» ÑĮ
å ©
k f
90 8
ĠĠĠĠĠĠĠĠĠĠĠĠĠĠĠĠĠĠĠĠĠĠĠĠĠĠĠĠĠĠĠĠĠĠĠĠĠĠĠĠĠĠĠĠĠĠĠĠĠĠĠĠ ĠĠĠ
eng th
Ġĉĉ ĠĠ
ĠS how
K c
Ġ} }
40 8
digitalspy uk
80 8
ĠÐ² ÐĤ
P V
Ġli fe
de c
L g
er man
fi sh
ĠRe quirements
C are
N B
n in
ag ing
05 8
éĢ Ł
Ã ½
th es
style d
vel le
le v
ãĤ Ħ
ven ue
ĠC ategory
ampa ign
6 20
ê¸ °
r l
ab les
ÑĢÐ° Ð²
ĠAc cessories
re z
src set
79 8
Z O
u D
æĬ ķ
w ers
sh aring
ĠT a
ba o
u ally
ca b
every thing
, (
z A
Ð¾ Ñĩ
Par am
de pt
M DA
Y l
æ ļ
32 1
Ġà¤ ¸
dimen to
N f
j ack
E X
T ube
ĠG ames
ãĤ Ī
Ġ[ [
ĠØ± Ø§
ĠC ity
user Id
vis or
çĻ »
60 7
Ġpost s
94 6
æĶ ¶
un gen
titu lo
14 40
4 27
E i
b id
C am
sc ience
Ġĉ ĠĠĠĠĠĠĠĠĠĠĠĠĠĠĠ
J g
Place Holder
vari ant
message s
s x
ĠĉĉĠĉĉ Ġĉĉ
Ġp ass
huff ingtonpost
S ch
åħ ī
ĠÐ¸ Ð·
Ñ ĸ
' ){
' },
0 13
ãĢĤ </
æĴ Ń
Lo ader
èº «
re gular
bo ur
ĠĠĠĉĉ ĠĠĠĉĉ
]= !
q y
( {"
n th
Ġ â
em pre
member ship
è· ¯
[ ];
v or
ĠS et
ri p
88 4
Î ¡
si an
A X
Ġĉĉĉ Ġ
Ġpe ople
Port ugu
j Q
Ä ĩ
Ġĉ ĠĠ
Ø±ÛĮ ÙĨ
offer name
Õ ¡
è Ĺ
Ġn um
90 7
ĠO ff
ra m
65 9
forum display
ÑĢÐµ Ð´
W Y
k v
ji an
up percase
P rd
gif ts
hi p
æĽ´ å¤ļ
h E
li ving
tp ut
me teo
ĠÐ Ĳ
Ġch annel
er ie
ä½ į
Ġac c
t te
uni versal
ĠC ard
6 25
J F
M er
li an
leg end
æ° ĳ
BJ ECT
S ell
55 1
le k
ì Ħ
S lo
Ġ lu
ĠM in
E xt
H d
S X
27 1
\ -
ãĥ ĵ
ĠC or
In ner
à¦ ¸
T ran
U pper
Ġ20 14
Ġc lip
H C
T og
is Function
as ure
and ard
Ġ( (
Ø¯Ø§ÙĨ ÙĦÙĪØ¯
sug ges
ci os
. &
45 6
IG HT
id x
Ġĉĉĉĉ Ġ
ab ort
Î¯ Î±
b w
06 6
sum er
in herit
Mj A
pa k
Ġd on
ç© º
69 3
Ã¡ n
Clo ud
cd nds
Î ł
á» Ļ
Z Z
ĠS ch
Ġsc Nav
Q I
la ter
f at
li gi
áº ¥
z ip
0 35
vent s
Ġm it
Ġbe gin
Ġ5 80
06 33
L TE
D T
=" ãĢĲ
fin ancial
R v
cd c
ener al
n Q
S ave
ist s
x o
li en
var s
lo ver
i ci
20 17
Ar t
V A
ÑĢ Ñĭ
Cur rent
Ø² Ø§Ø±
Ġw a
' ]=
re sp
fac es
women s
J Q
ì ŀ
Ġ 33
84 9
Z one
i di
H r
ca mera
84 7
dis able
Ġ 96
account s
S um
Ñ ¯
Ġv ia
b read
dif ied
b v
Or gan
å ŀĭ
ĠSh are
ãģĭ ãĤī
d un
97 9
e ce
F ix
ti sh
âĢ º
b ild
do limg
em i
Ġ% >
jo y
compo sed
H U
Ġĉĉ ĠĠĠĠĠĠĠĠ
/ ~
u P
cf m
é ª
Ho tel
çİ ©
q o
Î Ŀ
O c
Ġf n
yregb nr
At tr
lar Ä±
ON E
ØŃ Ùħ
Sele cted
05 6
li brary
Ġ// -->
Ġm atch
ck ed
date Published
V W
lNj Q
M ac
L ength
ĠS te
E b
ab a
{ '
4 28
44 8
U se
="/ ~
IH N
ot al
clo thing
ĠEND S
G b
d X
Ġ 37
be at
mi litary
... "
æ³ ¨
74 5
pre composed
N k
demand ware
Cre dit
atur al
; \
I r
top s
25 26
Ð½ Ð°
à« Ģ
å¾ ®
6 75
low er
HJ l
åį ¡
Ġwe ek
ĠSTA RT
V C
è ħ
ĠP S
40 9
Ġ4 2
Ġro tate
è ¼
Ġ" \
à¤ ¹
Ġli ve
____ ____
å£ «
uti li
f em
Ġo u
(" /
K r
identi fier
U c
04 8
ÏĦ Îµ
acion al
Ġse e
ta obao
L atest
channel s
I HR
hot mail
} )
screenshot s
ar th
Ġb a
05 0
à¹ Ĥ
69 5
146 34
pop over
D R
P K
an cy
our ces
Ø§Ø³ Øª
Chal Str
b ie
Ġp hone
ÙĦ Ø§Ùħ
E U
g mo
æĹ ł
aci Ã³n
list s
block quote
ke ys
ĠJ o
tr affic
ki cker
ĠCol lection
A a
Ñĥ Ð¿
Ġ// ]]>
B z
] {
buy ing
ent al
M b
74 7
ÑĤ Ð°
re tirement
pi cker
çĽ ´
w ri
fin al
S ide
t mall
pri me
ali baba
S end
q e
N K
Ð Ľ
Ġĉĉ ĠĠĠĠĠĠĠĠĠĠĠ
\"> \
ust ra
S Q
por ted
ĠMan ager
; |&
âĢ ¡
ĠH er
visi tor
Ġ... </
D g
99 4
lGODlhAQ ABA
mo v
Ġpop up
reci pe
05 7
ĠÐ Ŀ
par ty
ĠÐ²ÐĤ ÐĦ
64 9
|| []
éķ ¿
6 36
publish er
ĠO BJECT
u ge
lNj c
è¿ Ļ
C ache
Ġin t
Î Ĺ
' ]:
D L
Ġ âĢľ
æµ ģ
äº İ
AB AAAA
ane ws
h ate
ĠĠĠĠĠĠĠĠĠĠ ĉ
g old
M et
Ġpar ams
pri vate
yan dex
){ #
Qui ck
ad as
log y
S top
ĉĉĉĉĉĉĉĉĉĉĉĉĉĉĉĉĉĉĉĉĉĉĉĉĉĉĉĉĉĉĉĉĉĉĉĉĉĉĉĉĉĉĉĉĉĉĉĉĉĉĉĉĉĉĉĉĉĉĉĉĉĉĉĉ ĉĉĉĉĉĉĉĉĉĉĉĉĉĉĉĉĉĉĉĉĉĉĉĉĉĉĉĉĉĉĉĉĉĉĉĉĉĉĉĉĉĉĉĉĉĉĉĉĉĉĉĉĉĉĉĉĉĉĉĉĉĉĉĉ
ble m
tes ti
64 4
NC jx
Spe cial
# ?
h ard
ation al
Y e
Ġp lan
)) },
T er
Ġs box
element s
sc i
Ġt wo
ve y
n j
sh ed
94 7
Ġ[ '
B k
ĠC heck
ĠĠĠĠĠĠĠĠĠĠĠĠĠĠĠĠĠĠĠĠĠĠĠĠĠĠĠĠĠĠĠĠĠĠĠĠĠĠĠĠĠĠĠĠĠĠĠĠĠĠĠĠĠĠĠĠĠĠĠĠĠĠĠĠ ĠĠĠĠĠĠĠĠĠĠĠĠĠĠĠĠĠĠĠĠĠ
work s
ot s
64 7
Î ļ
ck wave
ĠI f
38 2
Mz Mz
J E
49 8
rival s
Ġbe fore
ÙĬ ÙĪ
Fo to
done sia
V m
j er
s ar
55 4
ĠØ¹ ÙĦÙī
æ¬ ¡
b GU
g x
M K
I p
com score
Ġs on
h on
n ight
67 7
201605 10
I NT
ad ded
06 8
Ġ ref
h ack
06 9
ĠTi me
Ġp our
ha ve
ix el
è Ń
åĪ ¶
G rid
direct ory
>| <
G S
Z k
U lN
swi per
G c
fav orite
" .
D ie
r um
æ¯ Ķ
ãĤ· ãĥ§
do u
Col lection
Ġp ur
Ð¸ Ñħ
ç Į
Ġo bj
H c
con s
cor p
ĠÙĪ Ø§ÙĦ
Ġ ÚĨ
attribute s
Y x
åį İ
V IE
Ø§ÙĨ Ùĩ
++ ;
lNj g
N ot
g k
ms application
36 1
V l
s in
section s
cine ma
Y ear
De sc
in valid
stre ams
é¢ ĳ
w h
li ga
ad bl
Ø± Ø©
A O
g static
Ê ±
re me
ĠE l
æ© Ł
li ch
39 2
hi li
ì ĭ
por tada
care ers
sug gest
par sys
åľ ĭ
Ġ Ø§Ùħ
95 9
w hich
fut bol
Ġcon tract
in f
book ing
"} ],"
C lear
ĠD own
Ġc ho
ä¸ ľ
A z
y k
Ø§ Ú©
U d
H l
el la
Ġp res
ì §
mer cial
lo ut
od HRw
V N
value s
ĠĠĉĉĉĉĉĉĉĉ ĉĉ
Ø´ ÙĨ
æģ ¯
F media
J vb
ma k
row n
R X
Ġ ÑĢÐµ
Ġc ss
Emp ty
Ãª n
0 16
Ġr un
Si tes
g ds
ZX I
ac ti
hel lip
Ġc ap
66 8
ĠIn dia
Ġres ult
Ġ uk
la tions
min t
IG RhdGE
Q f
5 40
B ckt
Sp ot
au ti
% =
di y
ãĥ¼ ãĤ¹
F X
60 9
T k
da ble
G W
r n
5 15
ä¸ İ
C Y
Mark et
ia o
Ġfe ed
qu al
36 2
Ø¨ Ø§ÙĦ
ĠYa hoo
p ul
Ġy ear
å® ŀ
Ø§ÛĮ ÛĮ
hu a
" </
b us
Ġb et
tic ias
mater ial
åı ĭ
ĠÐ² Ñĭ
5 20
V ER
Ġc over
ava ilable
User name
ĠL ight
97 6
Ø¬ Ùħ
B K
ĠA uto
an h
th en
ro ad
Ġon submit
ale ndar
ita lic
sa T
74 9
"], ["
. __
J O
b rity
J U
tr as
05 16
e ffect
85 8
ãĥ³ ãĤ°
3 11
æĦ Ł
[ ^
do g
ãģ Ľ
Ùģ ÙĬ
List Item
L u
list a
R pd
âĢ °
è İ
Ġ strong
Ġ old
Si bling
a spect
indi cator
pe dia
j z
recommen d
av en
G TM
ref ix
ÑģÑĤ ÑĮ
Ġw ay
éŁ ³
ĠS ie
ĠP lan
áº Ń
è® º
verti sing
sh ou
Item id
S an
36 3
clear Timeout
ĠÙħ Ø¹
visi t
ãģ£ ãģŁ
J K
S pan
Y AHOO
åŃ £
> -
Ġme ga
Ġ Ã©
W orld
2016 03
ĠF il
65 4
}} );
r src
é ¤
ãĥ Ŀ
ane se
äº ¤
pb m
æ¼ «
Ġun defined
Fo ot
ĠØ§ÛĮ Ø±Ø§ÙĨ
E y
W ho
ĠN et
ud ents
mark ets
lND k
F P
S upport
category Id
Ġl te
- =
b ags
z k
ĠK ing
N I
Ġde tails
Upper Case
t uni
ti cos
Ġal pha
D s
Ġw here
Ġle af
F OR
pa ger
67 2
st one
con stru
âĢ ¹
sh ang
V I
ĠVideo s
ss i
id u
to UpperCase
Ø¨ ÙĦ
4 16
P Z
D u
é ¾
ws j
85 6
0 84
na W
Par ams
Part ner
ĠProduct s
ti co
G C
V Q
read er
ĠØ¨Ø± Ø§ÛĮ
page Tracker
ç ¢
Ġ ","
af filiate
ind ent
Ø§Ø² ÛĮ
smoo thing
="" /></
ĠØ§ÛĮ ÙĨ
j ar
b as
st d
88 6
OD k
5 10
ĠĠĠĠĠĠĠĠĠĠĠĠĠĠĠĠ ĉ
v h
live door
ultip le
Y r
fin ish
N u
Ð §
bur ger
S uper
Ġs ingle
å® ¹
D ER
"," \
40 2
f v
ĠÐ ĳ
Z U
] -[
o acute
Ġ tem
25 27
87 9
leg acy
âĤ¬ âĢľ
5 04
E nt
t we
Ġ sta
Ġen able
Un it
editor ial
d or
te c
J R
;} "
68 9
Å ŀ
67 9
Ã µ
ge l
reg istration
rec ruit
l Ä±
q p
Ð¼ Ð°
C k
ãģ¾ ãģĻ
ar ia
ht c
ãĤ ¬
stri ct
Ġn h
ĠH elvetica
B p
D esktop
k ur
âĢļ Â¬
ev t
d cd
