{"!":0,"\"":1,"#":2,"$":3,"%":4,"&":5,"'":6,"(":7,")":8,"*":9,"+":10,",":11,"-":12,".":13,"/":14,"0":15,"1":16,"2":17,"3":18,"4":19,"5":20,"6":21,"7":22,"8":23,"9":24,":":25,";":26,"<":27,"=":28,">":29,"?":30,"@":31,"A":32,"B":33,"C":34,"D":35,"E":36,"F":37,"G":38,"H":39,"I":40,"J":41,"K":42,"L":43,"M":44,"N":45,"O":46,"P":47,"Q":48,"R":49,"S":50,"T":51,"U":52,"V":53,"W":54,"X":55,"Y":56,"Z":57,"[":58,"\\":59,"]":60,"^":61,"_":62,"`":63,"a":64,"b":65,"c":66,"d":67,"e":68,"f":69,"g":70,"h":71,"i":72,"j":73,"k":74,"l":75,"m":76,"n":77,"o":78,"p":79,"q":80,"r":81,"s":82,"t":83,"u":84,"v":85,"w":86,"x":87,"y":88,"z":89,"{":90,"|":91,"}":92,"~":93,"¡":94,"¢":95,"£":96,"¤":97,"¥":98,"¦":99,"§":100,"¨":101,"©":102,"ª":103,"«":104,"¬":105,"®":106,"¯":107,"°":108,"±":109,"²":110,"³":111,"´":112,"µ":113,"¶":114,"·":115,"¸":116,"¹":117,"º":118,"»":119,"¼":120,"½":121,"¾":122,"¿":123,"À":124,"Á":125,"Â":126,"Ã":127,"Ä":128,"Å":129,"Æ":130,"Ç":131,"È":132,"É":133,"Ê":134,"Ë":135,"Ì":136,"Í":137,"Î":138,"Ï":139,"Ð":140,"Ñ":141,"Ò":142,"Ó":143,"Ô":144,"Õ":145,"Ö":146,"×":147,"Ø":148,"Ù":149,"Ú":150,"Û":151,"Ü":152,"Ý":153,"Þ":154,"ß":155,"à":156,"á":157,"â":158,"ã":159,"ä":160,"å":161,"æ":162,"ç":163,"è":164,"é":165,"ê":166,"ë":167,"ì":168,"í":169,"î":170,"ï":171,"ð":172,"ñ":173,"ò":174,"ó":175,"ô":176,"õ":177,"ö":178,"÷":179,"ø":180,"ù":181,"ú":182,"û":183,"ü":184,"ý":185,"þ":186,"ÿ":187,"Ā":188,"ā":189,"Ă":190,"ă":191,"Ą":192,"ą":193,"Ć":194,"ć":195,"Ĉ":196,"ĉ":197,"Ċ":198,"ċ":199,"Č":200,"č":201,"Ď":202,"ď":203,"Đ":204,"đ":205,"Ē":206,"ē":207,"Ĕ":208,"ĕ":209,"Ė":210,"ė":211,"Ę":212,"ę":213,"Ě":214,"ě":215,"Ĝ":216,"ĝ":217,"Ğ":218,"ğ":219,"Ġ":220,"ġ":221,"Ģ":222,"ģ":223,"Ĥ":224,"ĥ":225,"Ħ":226,"ħ":227,"Ĩ":228,"ĩ":229,"Ī":230,"ī":231,"Ĭ":232,"ĭ":233,"Į":234,"į":235,"İ":236,"ı":237,"Ĳ":238,"ĳ":239,"Ĵ":240,"ĵ":241,"Ķ":242,"ķ":243,"ĸ":244,"Ĺ":245,"ĺ":246,"Ļ":247,"ļ":248,"Ľ":249,"ľ":250,"Ŀ":251,"ŀ":252,"Ł":253,"ł":254,"Ń":255,"ĠĠ":256,"ĠĠĠĠ":257,"ĠĠĠĠĠĠĠĠ":258,"ĉĉ":259,"=\"":260,"</":261,"ĠĠĠĠĠĠĠĠĠĠĠĠĠĠĠĠ":262,"la":263,"on":264,"\">":265,"re":266,"in":267,"Ġc":268,"ss":269,"di":270,"er":271,"ti":272,"le":273,"Ġ<":274,"lass":275,"ĉĉĉĉ":276,"Ġclass":277,"an":278,"te":279,"li":280,"div":281,"ar":282,"or":283,"en":284,"ht":285,"st":286,"sp":287,"co":288,"al":289,"Ġh":290,"id":291,"ta":292,"th":293,"ref":294,"tion":295,"Ġ</":296,"ge":297,"//":298,"me":299,"ro":300,"Ġhref":301,"></":302,"><":303,"tp":304,"ri":305,"http":306,"span":307,"ĠĠĠĠĠĠĠĠĠĠĠĠĠĠĠĠĠĠĠĠĠĠĠĠĠĠĠĠĠĠĠĠ":308,"se":309,"ad":310,"://":311,"im":312,"ww":313,"to":314,"de":315,"com":316,"Ġĉĉĉĉ":317,"lo":318,"un":319,"ac":320,"da":321,"00":322,"ent":323,"sc":324,"px":325,"\"><":326,"20":327,"si":328,"ty":329,"age":330,"ing":331,"pe":332,"ur":333,");":334,"con":335,"ch":336,"ĠĠĠĠĠĠĠĠĠĠĠĠ":337,"at":338,"Ġs":339,"Ġĉĉ":340,"\":":341,"op":342,"na":343,"el":344,"bo":345,"ut":346,"--":347,"data":348,"tr":349,"ig":350,"pt":351,"lin":352,"tle":353,"\",":354,"ue":355,"sh":356,"scri":357,"ra":358,"ce":359,"ul":360,"ne":361,"title":362,"16":363,"ck":364,"=\"/":365,"tem":366,"www":367,"um":368,"Ġf":369,"Ġdata":370,"is":371,"ma":372,"script":373,"nt":374,"img":375,"type":376,"he":377,"ol":378,"Ġĉ":379,"xt":380,"Ġ.":381,"do":382,"get":383,"Ġv":384,"il":385,"rc":386,"mo":387,"ca":388,"Ġb":389,"\"></":390,"ction":391,"ot":392,"it":393,"Ġ1":394,"item":395,"wid":396,"ie":397,"Ġp":398,"='":399,"us":400,"lan":401,"sty":402,"Ġ0":403,"style":404,"Ġid":405,"Ġ{":406,"ct":407,"ml":408,"am":409,"image":410,"der":411,"text":412,"Ø§":413,"ho":414,"ve":415,"width":416,"Ġa":417,"if":418,"ĠĠĠ":419,"ub":420,"Ġtitle":421,"Ġt":422,"ack":423,"option":424,"qu":425,"Ġsrc":426,"Ġ}":427,"tent":428,"ight":429,"\",\"":430,"\":\"":431,"Ġĉĉĉĉĉĉĉĉ":432,"10":433,"no":434,"Ġ\"":435,"html":436,"link":437,"ver":438,"pro":439,"Ġ/":440,"){":441,"ÃĲ":442,"top":443,"ĠĠĠĠĠĠĠĠĠĠĠĠĠĠĠĠĠĠĠĠ":444,"arget":445,"fi":446,"tic":447,"unction":448,"14":449,"Ġ=":450,"et":451,"fo":452,"Ġĉĉĉ":453,"25":454,"col":455,"po":456,"15":457,"av":458,"up":459,"alue":460,"men":461,"Ġ'":462,"name":463,"for":464,"go":465,"Ġtarget":466,"this":467,"jp":468,"ws":469,"=\"_":470,"Ġal":471,"mar":472,"we":473,"gin":474,"es":475,"ft":476,"Ġĉĉĉĉĉĉ":477,"lay":478,"==":479,"as":480,"âĢ":481,"lank":482,"blank":483,"2016":484,"Ġre":485,"gro":486,"',":487,"12":488,"and":489,"function":490,"Ġin":491,"ĠĠĠĠĠĠĠĠĠĠĠĠĠĠĠĠĠĠĠĠĠĠĠĠĠĠĠĠĠĠĠĠĠĠĠĠĠĠĠĠĠĠĠĠĠĠĠĠĠĠĠĠĠĠĠĠĠĠĠĠĠĠĠĠ":492,"td":493,"Ġ-":494,"Ġtype":495,"ĠS":496,"ed":497,"ng":498,"und":499,"ment":500,"ãĥ":501,"Ġstyle":502,"AA":503,"jpg":504,"line":505,"ont":506,"ff":507,"one":508,"(\"":509,"&#":510,"ter":511,"ãģ":512,"13":513,"Ġvalue":514,"05":515,"js":516,"ĠĠĠĠĠĠĠĠĠĠĠĠĠĠĠĠĠĠĠĠĠĠĠĠ":517,"all":518,"Ġ#":519,"Ġalt":520,"menu":521,"pp":522,"order":523,"__":524,"!--":525,"24":526,"icon":527,"content":528,"are":529,"('":530,"box":531,"\\/":532,"ab":533,"https":534,"du":535,"Ġ(":536,"og":537,"ide":538,"ort":539,"om":540,"nav":541,"ĠC":542,"ci":543,"gb":544,"ĠÐ":545,"18":546,",\"":547,"the":548,"19":549,"add":550,"22":551,"ate":552,"quot":553,"ground":554,"ackground":555,"ãĤ":556,"&&":557,"17":558,"Ø±":559,").":560,"vi":561,"ga":562,"urn":563,"head":564,"Ġĉĉĉĉĉ":565,"),":566,"Ð¾":567,"ght":568,"Ġwidth":569,"amp":570,"Ð°":571,"ze":572,"-->":573,"ic":574,"39":575,"04":576,"left":577,"ĠA":578,"ow":579,"ory":580,"ĠĠĠĠĠĠĠĠĠĠĠĠĠĠĠĠĠĠĠĠĠĠĠĠĠĠĠĠ":581,"br":582,"Ġhe":583,"ok":584,"var":585,"/\"":586,"ton":587,"gn":588,"Ġ>":589,"put":590,"06":591,"lick":592,"Ðµ":593,"turn":594,"ĉĉĉĉĉĉĉĉ":595,"ĠP":596,"set":597,"Ġw":598,"Ø§Ù":599,"dow":600,"Ġ/>":601,"Ġon":602,"Ġo":603,"ĠT":604,"ava":605,"dex":606,"ĠØ":607,"ĠM":608,"em":609,"à¸":610,"lock":611,"so":612,"images":613,"utton":614,"ĠĠĠĠĠĠ":615,"26":616,"margin":617,"33":618,"Ġheight":619,"ure":620,"},":621,"28":622,"ph":623,"Ð¸":624,"27":625,"list":626,"load":627,"Ġe":628,"form":629,"fa":630,"ÛĮ":631,"29":632,"row":633,"vent":634,"web":635,"java":636,"den":637,"fe":638,"news":639,"pa":640,"color":641,"index":642,"ner":643,"30":644,"javascript":645,"splay":646,"medi":647,"ali":648,"au":649,"bi":650,"return":651,"right":652,"page":653,"str":654,"sub":655,"99":656,"tab":657,"arch":658,"display":659,"vie":660,"ticle":661,"Ġname":662,"35":663,"be":664,"Ġn":665,"lab":666,"button":667,"11":668,"ke":669,"doc":670,"ÙĪ":671,"ument":672,"=\"\"":673,"36":674,"ia":675,"ou":676,"Ġrel":677,"umb":678,"ĠB":679,"net":680,"url":681,"art":682,"article":683,"ser":684,"In":685,"34":686,"size":687,"||":688,"click":689,"ÑĤ":690,"gory":691,"css":692,"cate":693,"Ùħ":694,"port":695,"png":696,"Ġ<!--":697,"coun":698,"Re":699,"nb":700,"sta":701,"ong":702,"ir":703,"ogle":704,"ontent":705,"sition":706,"adding":707,"50":708,"ame":709,"ard":710,"ers":711,"/\">":712,"dd":713,"idden":714,"}.":715,"Ġm":716,"Ġ-->":717,"ÑĢ":718,"lN":719,"ĠD":720,"les":721,"37":722,"label":723,"height":724,"Ð½":725,"{\"":726,"radi":727,"ation":728,"Ġ2":729,"font":730,"new":731,"ly":732,"tag":733,"Ġde":734,"Ġto":735,"duct":736,"Ġcol":737,"document":738,"38":739,"header":740,"sm":741,"ĉĉĉ":742,"ull":743,"'>":744,"Ñģ":745,"Ġĉĉĉĉĉĉĉ":746,"100":747,"Ġthe":748,")}":749,"ĠF":750,"media":751,"ĠĠĠĠĠĠĠĠĠĠ":752,"_.":753,"Ġborder":754,"lement":755,"main":756,"dy":757,"home":758,"block":759,"meta":760,"ideo":761,"nbsp":762,"64":763,"post":764,"Ġy":765,"ob":766,"ay":767,"Ø§Ø":768,"min":769,"80":770,"pre":771,"wor":772,"');":773,"Ġr":774,"ag":775,"tain":776,"time":777,"ĠL":778,"Ġand":779,"44":780,"cd":781,"66":782,"ÙĨ":783,"background":784,"à¤":785,"\\\"":786,"input":787,"57":788,"per":789,"app":790,"low":791,"kit":792,"true":793,"lear":794,"ans":795,"ll":796,"ĠE":797,"search":798,"mail":799,"out":800,"category":801,",#":802,"border":803,"je":804,"wra":805,"tom":806,"ult":807,"oter":808,"bar":809,"90":810,"ace":811,"google":812,"ĠĠĠĠĠ":813,"indow":814,"enter":815,"site":816,"bot":817,"ry":818,"Ð¾Ð":819,"Ġvar":820,"eld":821,"Name":822,"],":823,"hidden":824,"end":825,"webkit":826,"()":827,"alse":828,"ase":829,"Ø¯":830,"cat":831,"thumb":832,"88":833,"lu":834,"ĠH":835,"our":836,"ex":837,"55":838,"-.":839,"Ġbackground":840,"pri":841,"tive":842,"ĠG":843,"date":844,"IC":845,"product":846,"Id":847,"Ġfor":848,"Ġd":849,"ÙĦ":850,"ant":851,"ä¸":852,"ass":853,"sk":854,"Ġcontent":855,"pla":856,"cation":857,"bottom":858,"ÙĬ":859,"84":860,"ms":861,"ute":862,"od":863,"74":864,"tn":865,"hi":866,"70":867,"65":868,"ak":869,"strong":870,"..":871,"of":872,"75":873,"ÃĤ":874,"tainer":875,"log":876,"ery":877,"view":878,"ĠĠĠĠĠĠĠĠĠĠĠĠĠĠĠĠĠ":879,"();":880,"ĠW":881,"Ùĩ":882,"85":883,"video":884,"=\"#":885,"\"/":886,"ap":887,"Ġg":888,"Ġitem":889,"footer":890,"try":891,"Øª":892,"Element":893,"ĠN":894,"ĠI":895,"src":896,"69":897,"che":898,"book":899,"use":900,"âĢļ":901,"ted":902,"Ġ&":903,":#":904,"40":905,"php":906,"32":907,"ãĢ":908,"Ø§ÙĦ":909,"static":910,"ist":911,"que":912,"os":913,"vice":914,"padding":915,"Ġ+":916,"60":917,"à¦":918,"nd":919,"(){":920,"gif":921,"ï¼":922,"ĠĠĠĠĠĠĠĠĠ":923,"ion":924,"ine":925,"ĠĠĠĠĠĠĠĠĠĠĠĠĠĠĠĠĠĠĠĠĠĠĠĠĠĠĠĠĠĠĠĠĠĠĠĠ":926,";&#":927,"Ġof":928,"ru":929,"section":930,"down":931,"Â²":932,"cdn":933,"ies":934,"cn":935,"aa":936,"Ð»":937,"code":938,",.":939,"Ġĉĉĉĉĉĉĉĉĉ":940,"track":941,"event":942,";\">":943,"count":944,"none":945,"body":946,"87":947,"Ag":948,"gu":949,"res":950,"cial":951,"','":952,"sli":953,"Ti":954,"Se":955,"tip":956,"wp":957,"ĠO":958,"ode":959,"45":960,"mi":961,"pub":962,"ption":963,"ance":964,"Im":965,"86":966,"ink":967,"82":968,"Ġif":969,"Ġonclick":970,"over":971,"ban":972,"pi":973,"container":974,"cu":975,"oli":976,"ld":977,"red":978,"table":979,"\";":980,"user":981,"Ġfont":982,"tool":983,"position":984,"Ġ$":985,"info":986,"ĠĠĠĠĠĠĠĠĠĠĠĠĠĠ":987,"sele":988,"ĠĠĠĠĠĠĠ":989,"ror":990,"\");":991,"pu":992,"cre":993,"Ġmargin":994,"ui":995,"sa":996,"par":997,"23":998,"sel":999,"leng":1000,"word":1001,"000":1002,"fix":1003,"lar":1004,"ID":1005,"length":1006,"Ġĉĉĉĉĉĉĉĉĉĉĉĉ":1007,"67":1008,"window":1009,";</":1010,"Ġno":1011,":\"":1012,"21":1013,"ome":1014,"align":1015,"Ġ3":1016,"gba":1017,"**":1018,"fr":1019,";\"":1020,"int":1021,"fault":1022,"field":1023,"Ġ/></":1024,"94":1025,".</":1026,"gr":1027,"ĠĠĠĠĠĠĠĠĠĠĠĠĠĠĠĠĠĠĠĠĠĠĠĠĠĠĠĠĠĠĠĠĠĠĠĠĠĠĠĠĠĠĠĠĠĠĠĠĠĠĠĠĠĠĠĠĠĠĠĠĠĠĠĠĠĠĠĠĠĠĠĠĠĠĠĠĠĠĠĠĠĠĠĠĠĠĠĠĠĠĠĠĠĠĠĠĠĠĠĠĠĠĠĠĠĠĠĠĠĠĠĠĠĠĠĠĠĠĠĠĠĠĠĠĠĠĠĠ":1028,"Ġ:":1029,"arent":1030,";}":1031,"Ðº":1032,"\")":1033,"vo":1034,"ity":1035,"ets":1036,"ja":1037,"able":1038,"ith":1039,"hover":1040,"ĠR":1041,"Ġinput":1042,"77":1043,"Ġ4":1044,"tw":1045,"ha":1046,"pan":1047,"AAAA":1048,"sign":1049,"ka":1050,"cm":1051,"01":1052,"};":1053,"ild":1054,"show":1055,"action":1056,"Event":1057,"Ø¨":1058,"rop":1059,"tri":1060,"95":1061,"arrow":1062,"fin":1063,"ject":1064,"pper":1065,"adow":1066,"org":1067,"bu":1068,"zy":1069,"By":1070,"Ġ5":1071,"mit":1072,"48":1073,"gg":1074,"&&(":1075,"De":1076,"car":1077,"ble":1078,"share":1079,"ĠĠĠĠĠĠĠĠĠĠĠĠĠ":1080,"pl":1081,"';":1082,"radient":1083,"logo":1084,"usi":1085,"0000":1086,"umn":1087,"bile":1088,"')":1089,"Ġrgba":1090,"Ġ!":1091,"clear":1092,"Ġpro":1093,"Ġpo":1094,"shadow":1095,"ĠĠĠĠĠĠĠĠĠĠĠĠĠĠĠĠĠĠĠĠĠĠĠĠĠĠĠĠĠĠĠĠĠĠĠĠĠĠĠĠ":1096,"small":1097,"read":1098,"Ø³":1099,"null":1100,"Ġi":1101,"center":1102,"äº":1103,"qui":1104,"ber":1105,"68":1106,"ba":1107,"linear":1108,"prop":1109,"mes":1110,"gradient":1111,"ud":1112,"ts":1113,"},{\"":1114,"card":1115,"ls":1116,"03":1117,"97":1118,"Ġ|":1119,"fig":1120,"upload":1121,"push":1122,"atch":1123,"=\"//":1124,"ĠU":1125,"gra":1126,"reen":1127,";:":1128,"].":1129,"ren":1130,"group":1131,"/?":1132,"cy":1133,"tes":1134,"wrap":1135,"cor":1136,"Pro":1137,"tooltip":1138,"loat":1139,"Ġcolor":1140,"47":1141,"roll":1142,"ore":1143,"').":1144,"false":1145,"bb":1146,"====":1147,"Te":1148,"man":1149,"09":1150,"ell":1151,"login":1152,"max":1153,"æľ":1154,"ds":1155,"vel":1156,"300":1157,"ĠĠĉ":1158,"NT":1159,"Ġst":1160,"ollow":1161,"tor":1162,"btn":1163,"ni":1164,"Ġla":1165,"ature":1166,"Ġar":1167,"Bo":1168,"];":1169,"bal":1170,"ĠV":1171,"31":1172,"Ġnone":1173,"lang":1174,"}}":1175,"Ty":1176,"Ġmenu":1177,"Ġro":1178,"><!--":1179,"Lo":1180,"Ġdocument":1181,"ree":1182,"ys":1183,"Ch":1184,"mon":1185,"off":1186,"Ġfunction":1187,"Ġ10":1188,"tran":1189,"uto":1190,"Ñĥ":1191,"jf":1192,"72":1193,"default":1194,"96":1195,"olid":1196,"cus":1197,"orm":1198,"country":1199,"Ġsolid":1200,"fb":1201,"hoto":1202,"\"/>":1203,"error":1204,"Ġli":1205,"Ġmo":1206,"FF":1207,"value":1208,";&":1209,"moz":1210,"af":1211,"inter":1212,"ya":1213,"ER":1214,"%;":1215,"':":1216,"uk":1217,"fore":1218,"key":1219,"61":1220,"2015":1221,"comp":1222,"Type":1223,"åħ":1224,"83":1225,"check":1226,"entry":1227,"ĠĠĠĠĠĠĠĠĠĠĠĠĠĠĠĠĠĠ":1228,"cc":1229,"tv":1230,"by":1231,"trans":1232,"reg":1233,"lobal":1234,"ang":1235,"Link":1236,"wa":1237,"select":1238,"02":1239,"ICAg":1240,"por":1241,"wrapper":1242,"\").":1243,"âĢŀ":1244,"fla":1245,"mark":1246,"Ùģ":1247,"ath":1248,"=\"\">":1249,"ĠK":1250,"ĠĉĠĉ":1251,"Ne":1252,"follow":1253,"import":1254,"ten":1255,"sour":1256,"fil":1257,"TA":1258,"Ø§ÙĨ":1259,"older":1260,"radius":1261,"sion":1262,"Ġpadding":1263,"source":1264,"files":1265,"acebook":1266,"Con":1267,"clo":1268,"Ð²":1269,"89":1270,"Â¬":1271,"my":1272,"Ñĭ":1273,"auto":1274,"mer":1275,"-%":1276,"IN":1277,"inner":1278,"ĠĠĉĉĉĉ":1279,"ĉĉĉĉĉĉĉĉĉĉĉĉĉĉĉĉ":1280,"jfk":1281,"spon":1282,"Ġ[":1283,"Ġsc":1284,"widget":1285,"Ġĉĉĉĉĉĉĉĉĉĉ":1286,"price":1287,"spe":1288,"Ġ//":1289,"\":{\"":1290,"Ġis":1291,"important":1292,"ĠĠĠĠĠĠĠĠĠĠĠĠĠĠĠĠĠĠĠĠĠĠĠĠĠĠĠĠĠĠĠĠĠĠĠĠĠĠĠĠĠĠĠĠ":1293,"YW":1294,"å¤":1295,"He":1296,"ip":1297,"getElement":1298,"Ġdi":1299,"Ġitemprop":1300,"146":1301,"07":1302,"lic":1303,"81":1304,"49":1305,"tail":1306,"Ġl":1307,"itter":1308,"ily":1309,"PS":1310,"ĠØ§ÙĦ":1311,"rom":1312,"sv":1313,")</":1314,"ran":1315,"location":1316,"Ġtext":1317,"++":1318,"))":1319,"200":1320,"pop":1321,"usaa":1322,"Ġyour":1323,"ĠĠĠĠĠĠĠĠĠĠĠ":1324,"eb":1325,"ĠIn":1326,"rite":1327,"focus":1328,"Ġfalse":1329,"46":1330,"gen":1331,"cur":1332,"ings":1333,"sol":1334,"ĠÎ":1335,"Me":1336,"Ġicon":1337,"md":1338,"proto":1339,"Ú©":1340,"ale":1341,"]=":1342,"cess":1343,"Ñı":1344,"255":1345,"modu":1346,"xs":1347,"column":1348,"she":1349,"href":1350,"iz":1351,"bl":1352,"Ġthis":1353,"stom":1354,"ĠJ":1355,"ade":1356,"'><":1357,"else":1358,"ĠÙħ":1359,"uploads":1360,":-":1361,"\"},{\"":1362,"Mz":1363,"Â°":1364,"===":1365,"Co":1366,"ary":1367,"assets":1368,"dl":1369,"ments":1370,"003":1371,"DA":1372,"ial":1373,"Ġbe":1374,"åı":1375,"Ġrole":1376,"dG":1377,"auth":1378,"ign":1379,"global":1380,"orig":1381,"day":1382,"nofollow":1383,"Ġ&#":1384,"aser":1385,"çĶ":1386,"mobile":1387,"<!--":1388,"va":1389,"å®":1390,"scription":1391,"place":1392,"ĠĠĠĠĠĠĠĠĠĠĠĠĠĠĠĠĠĠĠ":1393,"pb":1394,"ĠRe":1395,"ki":1396,"à¹":1397,"Ð¼":1398,"asp":1399,"\\\\":1400,"Ġth":1401,"BA":1402,"iew":1403,"RE":1404,"76":1405,"Ġme":1406,"holder":1407,"Ġse":1408,"[\"":1409,"ee":1410,"shop":1411,"Ø©":1412,"Ġfa":1413,"blog":1414,"Ġclear":1415,"Ar":1416,"US":1417,"202":1418,"rame":1419,"ĠØ¨":1420,"73":1421,"submit":1422,"banner":1423,"ĠY":1424,"parent":1425,"Image":1426,"ories":1427,"cl":1428,"Le":1429,"Ġleft":1430,"active":1431,"ark":1432,";,":1433,"ZW":1434,"IG":1435,"ven":1436,"Qu":1437,"ae":1438,"ĠÃĲ":1439,"Ġcon":1440,"ach":1441,"lign":1442,"ns":1443,"Ġ\">":1444,"Time":1445,"pass":1446,"gt":1447,"pr":1448,"ache":1449,"create":1450,"Ø¹":1451,"Ø´":1452,"ãĥ¼":1453,"file":1454,"chan":1455,"htm":1456,"Ã©":1457,"test":1458,"Ä±":1459,"perty":1460,"ads":1461,"jo":1462,"class":1463,"vb":1464,"54":1465,"Ġaria":1466,"dis":1467,"Ġ/><":1468,"79":1469,"gi":1470,"=\\\"":1471,"origin":1472,"drop":1473,"tu":1474,"Com":1475,"Ġdisplay":1476,"query":1477,"63":1478,"Ġalign":1479,"play":1480,"Ġtop":1481,"Nav":1482,"sport":1483,"Ġ20":1484,"Ġk":1485,"DE":1486,"mp":1487,"level":1488,"78":1489,"za":1490,"lazy":1491,"ill":1492,"ÑĮ":1493,"fir":1494,"ress":1495,"su":1496,"Ġ8":1497,"Ð´":1498,"////":1499,"styleshe":1500,"feature":1501,"photo":1502,"mod":1503,"Ġwith":1504,"Ãĳ":1505,"elp":1506,"Ġfi":1507,"á»":1508,"Ġch":1509,"08":1510,"Page":1511,"nail":1512,"Ø§Ø±":1513,"bout":1514,"ĠĠĠĠĠĠĠĠĠĠĠĠĠĠĠĠĠĠĠĠĠ":1515,"UR":1516,"hr":1517,"59":1518,"yn":1519,"\"}":1520,"Ġan":1521,"æĸ":1522,"ÙĤ":1523,"more":1524,"ousel":1525,"ICAgICAg":1526,"acity":1527,"stylesheet":1528,"navig":1529,"Ġ_":1530,"ON":1531,"dt":1532,"forum":1533,"ader":1534,"bg":1535,"Tr":1536,"Home":1537,"email":1538,"siz":1539,"Ġ\\":1540,"Content":1541,"ster":1542,"cs":1543,"ĠĀ":1544,"solute":1545,"Be":1546,"let":1547,"opacity":1548,"teaser":1549,"Ġ7":1550,"ec":1551,"ĠĠĉĉ":1552,"star":1553,"open":1554,"tid":1555,"twitter":1556,"val":1557,"Ġauto":1558,"social":1559,"YX":1560,"df":1561,"tics":1562,"respon":1563,"Ġĉĉĉĉĉĉĉĉĉĉĉ":1564,"light":1565,"rent":1566,"Ġen":1567,"fff":1568,"Ġj":1569,"okie":1570,"Item":1571,"wi":1572,"CA":1573,"TE":1574,"weight":1575,"56":1576,"ps":1577,"ND":1578,"facebook":1579,"42":1580,"----":1581,"pc":1582,"pic":1583,"thumbnail":1584,"float":1585,"039":1586,"enu":1587,"svg":1588,"slide":1589,"ins":1590,"List":1591,"ive":1592,"Ġ});":1593,"story":1594,"Î±":1595,"Mo":1596,"à¥":1597,"land":1598,"àª":1599,"db":1600,"scroll":1601,"ĠĠĠĠĠĠĠĠĠĠĠĠĠĠĠĠĠĠĠĠĠĠ":1602,"sco":1603,";:&":1604,"grid":1605,"Ġx":1606,"Ġ2016":1607,"cal":1608,"sup":1609,"ina":1610,"onent":1611,"ĠĠĠĠĠĠĠĠĠĠĠĠĠĠĠ":1612,"51":1613,"utm":1614,"Âł":1615,"Sh":1616,"move":1617,"41":1618,"Ġyou":1619,"ite":1620,"game":1621,"='/":1622,"Ġclearfix":1623,"back":1624,"ind":1625,"ler":1626,"Ġun":1627,"62":1628,"XX":1629,"amily":1630,"lt":1631,"]:":1632,"Ġ100":1633,"Ø§ÛĮ":1634,"To":1635,"flow":1636,"ye":1637,"Ġjs":1638,"aly":1639,"['":1640,"rem":1641,"Text":1642,"noscript":1643,"rect":1644,"stat":1645,"Ġ><":1646,"wo":1647,"ZX":1648,"dia":1649,"Click":1650,"cb":1651,"IE":1652,"Go":1653,"hp":1654,"HR":1655,"lb":1656,"ther":1657,"module":1658,"cont":1659,"TM":1660,"ix":1661,"description":1662,"hite":1663,"Lj":1664,"AC":1665,"node":1666,"tions":1667,"MS":1668,"43":1669,"slider":1670,"Ġtrue":1671,".$":1672,"ategory":1673,"Ġ15":1674,"call":1675,"Ġ9":1676,"pages":1677,"flag":1678,"Ġ==":1679,"ÑģÑĤ":1680,"ssage":1681,"GF":1682,"Î¿":1683,"Ma":1684,"åĪ":1685,"Ã¢":1686,"=\".":1687,"custom":1688,"uch":1689,"nter":1690,"});":1691,"ĠĠĠĠĠĠĠĠĠĠĠĠĠĠĠĠĠĠĠĠĠĠĠĠĠĠĠĠĠĠĠĠĠĠĠĠĠĠĠĠĠĠĠĠĠĠĠĠ":1692,"Ġ6":1693,"Ġwindow":1694,"typeof":1695,"lace":1696,"original":1697,"NC":1698,"Class":1699,"tra":1700,"ãģ®":1701,"start":1702,"58":1703,"ÏĦ":1704,"lish":1705,"how":1706,"({":1707,"Of":1708,"']":1709,"live":1710,";\"><":1711,"Ġz":1712,"ä»":1713,"98":1714,"120":1715,"Ġ*":1716,"=!":1717,"****":1718,"hb":1719,"detail":1720,"ĠĠĠĠĠĠĠĠĠĠĠĠĠĠĠĠĠĠĠĠĠĠĠĠĠ":1721,"At":1722,"OS":1723,"cf":1724,"prototype":1725,"Ð¹":1726,"hd":1727,"Ġurl":1728,"Ġblock":1729,"Di":1730,"last":1731,"Ġĉĉĉĉĉĉĉĉĉĉĉĉĉĉĉĉ":1732,"ĠĉĉĠĉĉ":1733,"çļ":1734,"hu":1735,"fter":1736,"lative":1737,"Ur":1738,"Top":1739,"inet":1740,"io":1741,"\"),":1742,"brand":1743,"250":1744,"+\"":1745,"zc":1746,"side":1747,"150":1748,"TI":1749,"first":1750,"can":1751,"umber":1752,")\"":1753,"figure":1754,"her":1755,"æĹ":1756,"):":1757,"=\"#\"":1758,"aspx":1759,"Node":1760,"family":1761,"Ġcom":1762,"Ġnew":1763,"._":1764,"91":1765,"mb":1766,"ator":1767,";,&":1768,"92":1769,"ico":1770,"ĠÐ¿":1771,"transform":1772,"Ġhttp":1773,"Î¹":1774,"Ġreturn":1775,"views":1776,"mary":1777,"ube":1778,"author":1779,"sw":1780,"self":1781,"MC":1782,"\"]":1783,"lit":1784,"ating":1785,"work":1786,"201605":1787,"object":1788,"Ġà¤":1789,"adob":1790,"vc":1791,"LE":1792,"Ii":1793,"password":1794,"links":1795,"lete":1796,"inline":1797,"aW":1798,"ai":1799,"ji":1800,"medium":1801,"ung":1802,"Do":1803,"93":1804,"Mj":1805,"OR":1806,"visi":1807,"Tag":1808,"space":1809,"jquery":1810,"child":1811,"adobes":1812,"åĽ":1813,"Box":1814,"Ġhidden":1815,"adobesusi":1816,"mouse":1817,"St":1818,"çļĦ":1819,"Ġmedia":1820,"TY":1821,"rd":1822,"ãĥ³":1823,"googletag":1824,"ast":1825,"sti":1826,"transition":1827,"sites":1828,"screen":1829,"uni":1830,"The":1831,"path":1832,"Ex":1833,"ama":1834,"/>":1835,"Ġbox":1836,"promo":1837,"has":1838,"deal":1839,"AD":1840,"press":1841,"Ġco":1842,"jax":1843,"dropdown":1844,"lity":1845,"Ø²":1846,"Ad":1847,"Ġinset":1848,"guage":1849,"æĪ":1850,"account":1851,"nel":1852,"ĠĠĠĠĠĠĠĠĠĠĠĠĠĠĠĠĠĠĠĠĠĠĠĠĠĠĠĠĠĠĠĠĠĠĠĠĠĠĠĠĠĠĠĠĠĠĠĠĠĠĠĠ":1853,"ko":1854,"Ã¡":1855,"Po":1856,"ger":1857,"Fo":1858,"lex":1859,"========":1860,"tical":1861,"={":1862,"city":1863,"Ġposition":1864,"before":1865,"ele":1866,"service":1867,"52":1868,"ĠÐ²":1869,"53":1870,"Ġdo":1871,"life":1872,"ray":1873,"ĠÙĪ":1874,"dit":1875,")};":1876,"isi":1877,"OD":1878,"ĠĠĉĉĉ":1879,"lNj":1880,"cted":1881,"ÑĢÐ°":1882,"cli":1883,"![":1884,"reak":1885,"signin":1886,"Da":1887,"wd":1888,"OT":1889,":'":1890,"ded":1891,"Sta":1892,"Ð¾Ð²":1893,"hide":1894,"alytics":1895,"ÐµÐ½":1896,"Menu":1897,"sor":1898,"mber":1899,"\\/\\/":1900,"ZG":1901,"PC":1902,"carousel":1903,"common":1904,"ams":1905,"peat":1906,"åį":1907,"Ġ||":1908,"sive":1909,"lg":1910,"now":1911,"navigation":1912,"à§":1913,"zi":1914,"ync":1915,">&":1916,"Ob":1917,"cache":1918,"remove":1919,"AL":1920,"alog":1921,"decor":1922,"target":1923,"hat":1924,"vr":1925,"An":1926,"'></":1927,"ä½":1928,"ervice":1929,"base":1930,"tel":1931,"Ġat":1932,"çī":1933,"abled":1934,"Query":1935,"ust":1936,"ormal":1937,"SS":1938,"Ð·":1939,"ME":1940,"ById":1941,"Ġma":1942,"ØŃ":1943,"uti":1944,"AR":1945,"txt":1946,"online":1947,"Url":1948,"Ġor":1949,"åĬ":1950,"Mi":1951,"ĠĠĠĠĠĠĠĠĠĠĠĠĠĠĠĠĠĠĠĠĠĠĠĠĠĠĠĠĠ":1952,"åĲ":1953,"old":1954,"Sc":1955,"ana":1956,"panel":1957,"!=":1958,"Ġtab":1959,"large":1960,"\">&":1961,"templa":1962,"close":1963,"à®":1964,"rol":1965,":\\/\\/":1966,"On":1967,"len":1968,"Ġlo":1969,"ggle":1970,"ek":1971,"getElementById":1972,"âĢľ":1973,"å°":1974,"DQ":1975,"\"+":1976,"trib":1977,"Ġtag":1978,"ÐµÑĢ":1979,";-":1980,"Ġfield":1981,"Ø¬":1982,"homepage":1983,"bold":1984,"ĠĠĠĠĠĠĠĠĠĠĠĠĠĠĠĠĠĠĠĠĠĠĠĠĠĠ":1985,"Ĥ¬":1986,"mm":1987,"));":1988,"oo":1989,"enta":1990,"Ac":1991,"jb":1992,"cond":1993,"ado":1994,"fc":1995,"AB":1996,"sing":1997,"feed":1998,"Col":1999,"public":2000,"products":2001,"Fi":2002,"Ñĩ":2003,"Ġex":2004,"sprite":2005,"Ð¿":2006,"ug":2007,"Str":2008,"iness":2009,"language":2010,"decoration":2011,"lNz":2012,"Ġdiv":2013,"No":2014,"lot":2015,"sb":2016,"Ð±":2017,"reac":2018,"rt":2019,"dif":2020,"mode":2021,"Îµ":2022,"king":2023,"('#":2024,"toggle":2025,"\"==":2026,"ĠÑģ":2027,"ĠØ¯":2028,"Ã¼":2029,"Search":2030,"quo":2031,"Ã³":2032,"Ġad":2033,"Ġab":2034,"Î½":2035,"icons":2036,"element":2037,"Ġall":2038,"iste":2039,"}#":2040,"erson":2041,"Ġ--":2042,"ave":2043,"sto":2044,"Ú¯":2045,"usiness":2046,"createElement":2047,"400":2048,"ĠThe":2049,"ĠNe":2050,"store":2051,"desk":2052,"ï¼Į":2053,"ara":2054,"áº":2055,"Ġ16":2056,"ari":2057,"Sub":2058,"pen":2059,"fav":2060,"Title":2061,"sBy":2062,"!==":2063,"Th":2064,"DI":2065,"nal":2066,"ste":2067,"åŃ":2068,"||(":2069,"bd":2070,"sche":2071,"getElementsBy":2072,"(!":2073,"ajax":2074,"##":2075,"Form":2076,"Er":2077,"Ġby":2078,"tach":2079,"âĤ¬":2080,"ĠDe":2081,"themes":2082,"ics":2083,"lease":2084,"Ġright":2085,"Pri":2086,"Ij":2087,"=/":2088,"repeat":2089,"area":2090,"member":2091,"events":2092,"/\"><":2093,"180":2094,"cam":2095,"case":2096,"clu":2097,"å¹":2098,"CQ":2099,"clearfix":2100,"spac":2101,"ĠØª":2102,"\"/></":2103,"act":2104,"Ġnav":2105,"ready":2106,"OC":2107,"mall":2108,"Pass":2109,"modal":2110,"ada":2111,"Ġproperty":2112,"MA":2113,"transp":2114,"::":2115,"åľ":2116,"ny":2117,"Nz":2118,"thod":2119,"full":2120,"part":2121,"éĢ":2122,"Google":2123,"mid":2124,"reactid":2125,"tre":2126,"ports":2127,"caption":2128,"vali":2129,"cha":2130,"GE":2131,"ĠĠĠĠĠĠĠĠĠĠĠĠĠĠĠĠĠĠĠĠĠĠĠĠĠĠĠĠĠĠĠĠĠĠĠĠĠĠĠĠĠĠĠĠĠĠĠĠĠĠĠĠĠĠĠĠĠĠĠĠĠĠĠĠĠĠĠĠĠĠĠĠĠĠĠĠĠĠĠĠĠĠĠĠĠĠĠĠĠĠĠĠĠĠĠĠĠĠĠĠĠĠĠĠĠĠĠĠĠĠĠĠĠĠĠĠĠĠĠĠĠĠĠĠĠĠĠĠĠĠĠĠĠĠĠĠĠĠĠĠĠĠĠĠĠĠĠĠĠĠĠĠĠĠĠĠĠĠĠĠĠĠĠĠĠĠĠĠĠĠĠĠĠĠĠĠĠĠĠĠĠĠĠĠĠĠĠĠĠĠĠĠĠĠĠĠĠĠĠĠĠĠĠĠĠĠĠĠĠĠĠĠĠĠĠĠĠĠĠĠĠĠĠĠĠĠĠĠĠĠĠĠĠĠĠĠĠĠĠĠĠĠĠĠĠĠĠĠĠĠĠĠĠĠĠĠ":2132,"'s":2133,"tact":2134,"ĠIE":2135,"å¥":2136,"hot":2137,"gories":2138,"Ġcenter":2139,"component":2140,"Ġga":2141,"Track":2142,"anim":2143,"CB":2144,"lication":2145,"Ġcell":2146,"parentNode":2147,"white":2148,"void":2149,"ä¹":2150,"ars":2151,"eri":2152,"hoo":2153,"string":2154,"Ġle":2155,"View":2156,"160":2157,"touch":2158,"sy":2159,"MT":2160,")},":2161,"ĉĉĉĉĉ":2162,"headline":2163,"igh":2164,"ĠPro":2165,"very":2166,"News":2167,",'":2168,"eng":2169,"about":2170,"IH":2171,"Ġsize":2172,"py":2173,"SB":2174,"enti":2175,"lip":2176,"Ø§Ùħ":2177,"shi":2178,"Ð³":2179,"ors":2180,"allery":2181,"cture":2182,"help":2183,"},\"":2184,"ning":2185,"mF":2186,"plus":2187,"defin":2188,"[]":2189,"110":2190,"checkbox":2191,"Ġtabindex":2192,"kJ":2193,"unt":2194,"().":2195,"ert":2196,"Ġ&&":2197,"lack":2198,"tional":2199,"eu":2200,"\":\"\",\"":2201,"Wid":2202,"gram":2203,"è¯":2204,"Ġlink":2205,"Ġsh":2206,"Ġ,":2207,"dle":2208,"movie":2209,"Ġas":2210,")(":2211,"âĢĿ":2212,"videos":2213,"ey":2214,"71":2215,"fl":2216,"ctl":2217,"Code":2218,"Ø§Øª":2219,"LW":2220,"wel":2221,"led":2222,"Ġbtn":2223,"AF":2224,"dc":2225,"/%":2226,"BB":2227,"vid":2228,"alth":2229,"Ġfloat":2230,"rea":2231,"ange":2232,"bility":2233,"Ùĥ":2234,"next":2235,"ep":2236,"(\"#":2237,"zh":2238,"transparent":2239,"Email":2240,"ini":2241,"tribute":2242,"intl":2243,"ua":2244,";(":2245,"ssion":2246,"format":2247,"Data":2248,"TagName":2249,"state":2250,"big":2251,"æĺ":2252,"ks":2253,"getElementsByTagName":2254,"indexOf":2255,"ef":2256,"ib":2257,"from":2258,"2014":2259,"Liste":2260,"ĠâĢ":2261,"Øµ":2262,"dW":2263,"Nj":2264,"defined":2265,"Ïģ":2266,"device":2267,"dom":2268,"xx":2269,"bc":2270,"pos":2271,"uc":2272,"popup":2273,"Ġonmouse":2274,"sch":2275,"ties":2276,"320":2277,"(),":2278,"nr":2279,"My":2280,"board":2281,"Listener":2282,"des":2283,"comment":2284,"lection":2285,"Ġac":2286,"its":2287,"catch":2288,"irst":2289,"Ġscreen":2290,"zon":2291,"heck":2292,"pd":2293,"å¸":2294,"bro":2295,"zz":2296,"sca":2297,"send":2298,"Ġĉĉĉĉĉĉĉĉĉĉĉĉĉ":2299,"è¿":2300,"002":2301,"ku":2302,"Category":2303,"Ø®":2304,"direct":2305,"TR":2306,"MD":2307,"Ġover":2308,"OL":2309,"ĠÐ½":2310,"replace":2311,"als":2312,"lv":2313,"Up":2314,"comments":2315,"åĮ":2316,"ä¼":2317,"hc":2318,"':'":2319,"desktop":2320,"ĠÐ¸":2321,"filter":2322,"Ġimg":2323,"change":2324,"tb":2325,"Ġline":2326,"endif":2327,"ces":2328,"lugin":2329,"ux":2330,"selected":2331,"ffff":2332,"pres":2333,"PE":2334,"Ġview":2335,"hy":2336,"Ġul":2337,"mat":2338,"\\\",":2339,"240":2340,"acy":2341,"Ġ_.":2342,"Ġelse":2343,");\"":2344,"218":2345,"ãĥĪ":2346,"iframe":2347,"åº":2348,"Header":2349,"('.":2350,"ĠĉĉĉĠĉĉĉ":2351,"Ġver":2352,";<":2353,"sec":2354,"late":2355,"sg":2356,"Ïĥ":2357,";}.":2358,"$(":2359,"absolute":2360,"fn":2361,"watch":2362,"ÃŃ":2363,"Ġ/*":2364,"HO":2365,"ital":2366,"AS":2367,"uy":2368,"break":2369,"arg":2370,"pf":2371,"ĠĠĠĠĠĠĠĠĠĠĠĠĠĠĠĠĠĠĠĠĠĠĠ":2372,"GV":2373,"]>":2374,"UT":2375,"ĠĠĠĠĠĠĠĠĠĠĠĠĠĠĠĠĠĠĠĠĠĠĠĠĠĠĠ":2376,")?":2377,"äºº":2378,"iews":2379,"cookie":2380,"++)":2381,"market":2382,"ĠĠĠĠĠĠĠĠĠĠĠĠĠĠĠĠĠĠĠĠĠĠĠĠĠĠĠĠĠĠĠĠĠĠĠĠĠĠĠĠĠĠĠĠĠĠĠĠĠĠĠĠĠĠĠĠĠĠĠĠ":2383,"Ġ13":2384,"rs":2385,"front":2386,"lc":2387,"poli":2388,"æī":2389,"////////":2390,"lMz":2391,"radio":2392,"bol":2393,"EventListener":2394,"scrollbar":2395,"Ġabsolute":2396,"Sp":2397,"Ho":2398,"Si":2399,"PSJ":2400,"ĠØ§Ø":2401,"sis":2402,"ln":2403,"Ġ?":2404,"ea":2405,"è®":2406,"analytics":2407,"quest":2408,"download":2409,"æĿ":2410,"cent":2411,"itch":2412,"AN":2413,"gaq":2414,"attach":2415,"è¡":2416,"tracking":2417,"Ġ*/":2418,"ZT":2419,"scale":2420,"PG":2421,"ik":2422,"Ġ12":2423,"map":2424,"Pj":2425,"featured":2426,"overlay":2427,"Sign":2428,"(\".":2429,"lap":2430,"ding":2431,"free":2432,"bm":2433,"apple":2434,"second":2435,"soft":2436,"split":2437,"Ġfrom":2438,"SI":2439,"cloud":2440,"resource":2441,"roid":2442,"buy":2443,"async":2444,"ctor":2445,"oc":2446,"phone":2447,"alt":2448,"OM":2449,"terna":2450,"ãĤ¹":2451,"Car":2452,"responsive":2453,"pin":2454,"stri":2455,"overflow":2456,"Â±":2457,"char":2458,"+'":2459,"write":2460,"games":2461,"stre":2462,"Ù¾":2463,"job":2464,"forma":2465,"Ġplace":2466,"gallery":2467,"mg":2468,"Ð°Ð»":2469,"bs":2470,"357":2471,"undefined":2472,"ĠØ³":2473,"channel":2474,"ware":2475,"ãĢģ":2476,"600":2477,"hor":2478,"Ġchar":2479,"]-->":2480,"theme":2481,"layer":2482,"ien":2483,"Ñħ":2484,"Ġnull":2485,"rating":2486,"only":2487,"articles":2488,"Object":2489,"ĉĉĉĉĉĉ":2490,"sert":2491,"Ð°Ð½":2492,"Is":2493,"flex":2494,"Ġup":2495,"urance":2496,"disabled":2497,"ĠÚ©":2498,"114":2499,"az":2500,"ript":2501,"cale":2502,"tc":2503,"=[":2504,"attr":2505,"ular":2506,"ĠDate":2507,"å·":2508,"heading":2509,"gy":2510,"scope":2511,"Ø±ÙĪ":2512,"Ġhas":2513,"TML":2514,"TD":2515,"ani":2516,"115":2517,"AQ":2518,"num":2519,"æĸ°":2520,"(['":2521,"sf":2522,"Ġaction":2523,"imp":2524,"ä¸Ń":2525,"vertical":2526,"number":2527,"categories":2528,"},{":2529,"cr":2530,"pix":2531,"desc":2532,"Ġ$(":2533,"ext":2534,"cms":2535,"å¤§":2536,"\"},\"":2537,"252":2538,")&#":2539,"tos":2540,"ãĤ¤":2541,"entation":2542,"catalog":2543,"æĬ":2544,"items":2545,"bf":2546,"anner":2547,"ç»":2548,"shtml":2549,"bed":2550,"tech":2551,"relative":2552,"\"===":2553,"def":2554,"Ġthat":2555,"ï¼ģ":2556,",!":2557,"primary":2558,"ual":2559,"\\\":":2560,")\">":2561,"Date":2562,"dio":2563,"hl":2564,"gre":2565,"dark":2566,"Ð¾ÑĢ":2567,";(+":2568,"ĠĠĠĠĠĠĠĠĠĠĠĠĠĠĠĠĠĠĠĠĠĠĠĠĠĠĠĠĠĠĠĠĠ":2569,"SE":2570,"layout":2571,"uments":2572,"tl":2573,"âĢĻ":2574,"arrowim":2575,"Ġ30":2576,"æĹ¥":2577,"å¼":2578,"ãģĦ":2579,"insert":2580,"ulti":2581,"ĠĠĠĠĉ":2582,"Ø·":2583,"Ġu":2584,"Child":2585,"\\\",\\\"":2586,"Ġviews":2587,"hone":2588,"Ġ14":2589,"Fe":2590,"Before":2591,"Ġhtml":2592,"For":2593,"rap":2594,"ane":2595,"500":2596,"éĩ":2597,"Attribute":2598,"Ġel":2599,"tile":2600,"own":2601,"archive":2602,"acute":2603,"VE":2604,"thing":2605,"edu":2606,"hand":2607,"Ġare":2608,"sizing":2609,"jsp":2610,"sum":2611,"çĽ":2612,"125":2613,"house":2614,"profile":2615,"Ġpage":2616,"rid":2617,"nl":2618,"New":2619,"complete":2620,"åĨ":2621,"cz":2622,"ãģ«":2623,"Î·":2624,"application":2625,"Ġcur":2626,"cid":2627,"ÐµÑĤ":2628,"140":2629,"mun":2630,"leg":2631,"ÑģÐº":2632,"App":2633,"ori":2634,"AE":2635,"||\"":2636,"ky":2637,"match":2638,"mic":2639,"åĵ":2640,"tio":2641,"ĠÙģ":2642,"region":2643,"short":2644,"ĠMo":2645,"SU":2646,"Ġmore":2647,"current":2648,"Ġmethod":2649,"ater":2650,"ball":2651,"ĠCh":2652,"kt":2653,"--------":2654,"Ġ50":2655,"mt":2656,"Ġonly":2657,"serial":2658,"CH":2659,"cover":2660,"bab":2661,"template":2662,"Img":2663,"/_":2664,"ĠÐ¾":2665,"Ver":2666,"Ġlang":2667,"mu":2668,"Ġgoogletag":2669,"son":2670,"ita":2671,"cer":2672,"HJ":2673,"ones":2674,"Ġwe":2675,"etter":2676,"sho":2677,"indi":2678,"ystem":2679,"ao":2680,"ÏĤ":2681,"360":2682,"ãĥ¼ãĥ":2683,"find":2684,"ä¸Ģ":2685,"ï¼ļ":2686,"way":2687,"000000":2688,"cast":2689,"URL":2690,"-_":2691,"with":2692,"IF":2693,"Product":2694,"ĠSe":2695,"OP":2696,"tick":2697,"Script":2698,">,":2699,"...</":2700,"CT":2701,"single":2702,"ĠĠĠĠĠĠĠĠĠĠĠĠĠĠĠĠĠĠĠĠĠĠĠĠĠĠĠĠĠĠ":2703,"æµ":2704,":</":2705,"ĠÃ":2706,"å±":2707,"...":2708,"ous":2709,"ash":2710,"alterna":2711,"version":2712,"Ig":2713,"CE":2714,"Sele":2715,"ï½":2716,"Un":2717,"after":2718,"Ġit":2719,"Ġend":2720,"network":2721,"Ro":2722,"Ġdate":2723,"message":2724,"144":2725,"&&!":2726,"=&":2727,"insertBefore":2728,"rest":2729,"rity":2730,"ino":2731,"Ð½Ñĭ":2732,"Ġfo":2733,"ĉĉĉĉĉĉĉĉĉĉĉĉĉĉĉĉĉĉĉĉĉĉĉĉĉĉĉĉĉĉĉĉ":2734,"menuitem":2735,"lat":2736,"client":2737,"BE":2738,"tags":2739,"campa":2740,"Ġ24":2741,"equi":2742,"ason":2743,"Vy":2744,"options":2745,"Ġ11":2746,"Ġout":2747,"ĠĠĉĉĉĉĉĉĉĉ":2748,"Ð¾Ð»":2749,"Ġmin":2750,"mx":2751,"åĩ":2752,"pany":2753,"tok":2754,"ST":2755,"ĠÐº":2756,"Ġ},":2757,"Ġpost":2758,"Ð°ÑĤ":2759,"addEventListener":2760,"Ġda":2761,"105":2762,"([":2763,"Width":2764,"ques":2765,"Î»":2766,"Al":2767,"ĠGo":2768,"schema":2769,"context":2770,"dig":2771,"Load":2772,"gger":2773,"(/":2774,"bank":2775,"062":2776,"tings":2777,"Ġplaceholder":2778,"ĠĠĠĠĠĠĠĠĠĠĠĠĠĠĠĠĠĠĠĠĠĠĠĠĠĠĠĠĠĠĠĠĠĠĠĠĠĠĠĠĠĠĠĠĠĠĠĠĠĠĠĠĠĠĠĠ":2779,"lk":2780,"ister":2781,"AAAAAAAA":2782,"plugin":2783,"Ð¡":2784,"placeholder":2785,"campaign":2786,">(":2787,"Ġnot":2788,"status":2789,"ord":2790,"Ow":2791,"Ð¸ÑĤ":2792,"gs":2793,"à¸Ļ":2794,"you":2795,"ids":2796,"Ġmax":2797,"ship":2798,"à°":2799,"String":2800,"='_":2801,"Error":2802,"good":2803,"spacing":2804,"Ġĉĉĉĉĉĉĉĉĉĉĉĉĉĉ":2805,"?\"":2806,"ĠĉĉĉĉĠĉĉĉĉ":2807,"Ġinline":2808,"0627":2809,"ç½":2810,"201604":2811,"ager":2812,"vis":2813,"ãĥĥ":2814,"ping":2815,"Ø±ÛĮ":2816,"=_.":2817,"Value":2818,"Ġpre":2819,"éĽ":2820,"Timeout":2821,"ĠZ":2822,"prod":2823,"vest":2824,":{":2825,"Icon":2826,"yo":2827,"Ġpar":2828,"scape":2829,"ente":2830,"ĠĉĠĠĠ":2831,"Ġlast":2832,"Out":2833,"ero":2834,"world":2835,"Ġso":2836,"middle":2837,"dn":2838,"est":2839,"cp":2840,"Container":2841,"ÑĪ":2842,"ura":2843,"]);":2844,"=\"-":2845,"ĠCom":2846,"styles":2847,"WF":2848,"lND":2849,"Ġrelative":2850,"ters":2851,"special":2852,"tal":2853,"sed":2854,"\"/><":2855,"Ġxml":2856,"!</":2857,"hero":2858,"air":2859,"TV":2860,"BR":2861,"quired":2862,"ĠLo":2863,"');\"":2864,"};_.":2865,"ved":2866,"116":2867,"picture":2868,"del":2869,"Left":2870,"sr":2871,"tica":2872,"Ġvisi":2873,"ĠĠĉĉĉĉĉ":2874,"Ġta":2875,"ĠAr":2876,"Nw":2877,"Ð¾Ð´":2878,"Ġtr":2879,"Ġ<!--[":2880,"animation":2881,"ear":2882,"ÑĨ":2883,"Ġne":2884,"Ġì":2885,"Ġ)":2886,"ä¿":2887,"Ġsub":2888,"gh":2889,"both":2890,"pixel":2891,"gbq":2892,"ĠSt":2893,"EN":2894,"GU":2895,"123":2896,"ice":2897,"services":2898,"ĠÐ´":2899,"ÅŁ":2900,"So":2901,"à¤¾":2902,"æ¸":2903,":!":2904,"wer":2905,"abel":2906,"care":2907,"alternate":2908,"emp":2909,"IT":2910,"Ġopacity":2911,"uri":2912,"HV":2913,"nR":2914,"Ġadd":2915,"'+":2916,"vacy":2917,"atar":2918,"cta":2919,"iture":2920,"Inter":2921,"Ġcan":2922,"normal":2923,"Ø§Ø¯":2924,"ãĤĭ":2925,"HTML":2926,"Ġĉĉĉĉĉĉĉĉĉĉĉĉĉĉĉ":2927,"ank":2928,"gd":2929,"xy":2930,"ÐµÐ»":2931,"tend":2932,"********":2933,"blue":2934,"edi":2935,"ges":2936,"ĠĠĠĠĠĠĠĠĠĠĠĠĠĠĠĠĠĠĠĠĠĠĠĠĠĠĠĠĠĠĠĠĠĠĠĠĠĠĠĠĠĠĠĠĠĠĠĠĠĠĠĠĠĠĠĠĠĠĠĠĠĠĠĠĠĠĠĠĠĠĠĠĠĠĠĠĠĠĠĠĠĠĠĠĠĠĠĠĠĠĠĠĠĠĠĠ":2937,"En":2938,"à´":2939,"topic":2940,"à¸²":2941,"hen":2942,"\"],":2943,"Ġ\"><":2944,"æķ":2945,"ĠĠĠĉ":2946,"Ġ{\"":2947,"sports":2948,"Ð¾Ð¼":2949,"Lay":2950,"Ð¶":2951,"lid":2952,"à¶":2953,"Ġsp":2954,"Web":2955,"LA":2956,"CC":2957,"ĠØ¹":2958,"api":2959,"=(":2960,"loader":2961,"ĠTo":2962,"135":2963,"las":2964,"wser":2965,"PT":2966,"mc":2967,"ÏĢ":2968,");\">":2969,"zone":2970,"arguments":2971,"(['_":2972,"Ġ!=":2973,"details":2974,"sizes":2975,"999":2976,"ICAgICAgICAgICAg":2977,"control":2978,"mn":2979,"Message":2980,"yu":2981,"=\"\"><":2982,"ãģĹ":2983,"Ġng":2984,"220":2985,"Ġus":2986,"\":\"/":2987,"Cookie":2988,"Ġcor":2989,"hab":2990,"043":2991,"copy":2992,"148":2993,"ĠÄ":2994,"result":2995,"ãĤĴ":2996,"El":2997,"Par":2998,"è´":2999,"ĠÙĨ":3000,"person":3001,"Ġfirst":3002,"like":3003,"core":3004,"config":3005,"bookmark":3006,"=\"{":3007,"Ïħ":3008,"yes":3009,"Ã§":3010,"NE":3011,")),":3012,"Main":3013,"cart":3014,"?</":3015,"rand":3016,"Ġcharset":3017,"Button":3018,"welry":3019,"lable":3020,"ÙĪØ±":3021,";}#":3022,"oney":3023,"ated":3024,"Pre":3025,"Au":3026,"ano":3027,"101":3028,"ponent":3029,"ustom":3030,"è½":3031,"BC":3032,"Rh":3033,"lh":3034,"ÃĲÅ":3035,"secondary":3036,"ied":3037,"equiv":3038,"Info":3039,"NA":3040,"zo":3041,"Ġte":3042,"ens":3043,";\"></":3044,"ting":3045,"append":3046,"sale":3047,"sidebar":3048,"ĠTh":3049,"][":3050,"olu":3051,"presentation":3052,"=\"#\"><":3053,"La":3054,"mart":3055,"bra":3056,"800":3057,"ally":3058,"Ġset":3059,"pref":3060,"ump":3061,"docs":3062,"submenu":3063,"ãģ§":3064,"Site":3065,"iP":3066,"Price":3067,"Ġlanguage":3068,"(_.":3069,"dot":3070,"xl":3071,"ower":3072,"Ã¤":3073,"Ġget":3074,"init":3075,"choo":3076,"ãĢĤ":3077,"score":3078,"Ġ25":3079,"tax":3080,"host":3081,"rowse":3082,"uY":3083,"usic":3084,"ons":3085,"sia":3086,"quire":3087,"fd":3088,"ĠÙĩ":3089,"UM":3090,"å¾":3091,"Ð°ÑĢ":3092,"cel":3093,"Ġemail":3094,"tial":3095,"business":3096,"ĠAc":3097,"BQ":3098,"AT":3099,"ality":3100,"tate":3101,"fu":3102,"145":3103,"Ð¸Ð½":3104,"HP":3105,"pk":3106,"Service":3107,"avel":3108,"Ġlabel":3109,"{-":3110,"lNk":3111,"2013":3112,"foot":3113,"ards":3114,"ãģª":3115,"gpt":3116,"All":3117,"112":3118,"à¦¾":3119,"Ġpri":3120,"bt":3121,"skin":3122,"Ca":3123,"publish":3124,"ratio":3125,"GB":3126,"à·":3127,"win":3128,"Log":3129,"ses":3130,"usion":3131,"AP":3132,"åĽ½":3133,"high":3134,"Label":3135,"Ġspan":3136,"fy":3137,"une":3138,"ÙĬØ©":3139,":[":3140,"XR":3141,"LI":3142,"Ġoverflow":3143,"cell":3144,"formation":3145,"Or":3146,"ĠĉĉĉĉĉĉĉĉĠĉĉĉĉĉĉĉĉĉ":3147,"thumbs":3148,"gener":3149,"è§":3150,"ĠCo":3151,"Ø£":3152,"Open":3153,"BD":3154,"ĠOn":3155,"ãĤ¯":3156,"éĻ":3157,"Div":3158,"not":3159,"xp":3160,"vron":3161,"letter":3162,"================":3163,"kr":3164,"tim":3165,"=%":3166,"640":3167,"ãģĮ":3168,"Math":3169,"Ð¸Ñı":3170,"Key":3171,"ãģŁ":3172,"LH":3173,"0022":3174,"Password":3175,"ÙĪØ¯":3176,"Ġà¦":3177,"CM":3178,"Ð¾ÑĤ":3179,"å½":3180,"serif":3181,"access":3182,"ãģ¦":3183,"CO":3184,"dation":3185,"preview":3186,"ĠÙĦ":3187,"Ġ]":3188,"terest":3189,"Îº":3190,"Ġitemscope":3191,"Li":3192,"034":3193,"Ġlinear":3194,"uid":3195,"Ġfe":3196,"çİ":3197,"flo":3198,"tit":3199,"\":[":3200,"contact":3201,"ZD":3202,"Ġvideo":3203,"each":3204,"XM":3205,"Ġsi":3206,"fp":3207,"130":3208,"Ġitemtype":3209,"onload":3210,"jQuery":3211,"&&\"":3212,"ç§":3213,"cia":3214,"Man":3215,"Video":3216,"Case":3217,"ju":3218,"tas":3219,"pping":3220,"Ġsite":3221,"Ġper":3222,"ask":3223,"UA":3224,"lNE":3225,"fra":3226,"èµ":3227,"offset":3228,"Login":3229,"portal":3230,"Â»":3231,"éģ":3232,"JS":3233,"mV":3234,"pay":3235,"Ñİ":3236,"trackEvent":3237,"black":3238,"Hw":3239,"User":3240,"ox":3241,"Â«":3242,"Ġcat":3243,"vers":3244,"ĠØ´":3245,"resources":3246,"xml":3247,"health":3248,"ene":3249,"loading":3250,"PR":3251,"104":3252,"support":3253,"ork":3254,"fs":3255,"ĠMa":3256,"Ġbottom":3257,"WV":3258,"fan":3259,"-_-":3260,"æ°":3261,"NS":3262,"FC":3263,"Cat":3264,"orn":3265,"rer":3266,"Ġ<![":3267,"username":3268,"ãĤ¢":3269,"0644":3270,"])":3271,"117":3272,"ç¾":3273,"porn":3274,"lide":3275,"visible":3276,"cho":3277,"era":3278,"chevron":3279,"ctr":3280,"Ni":3281,"Ġtransparent":3282,"ĠMe":3283,"tabs":3284,"FFFF":3285,"ĠĠĠĠĠĉ":3286,"stand":3287,"Ġlist":3288,"à¸Ń":3289,"Ġvalign":3290,"archives":3291,"Ġshow":3292,"Ð¾Ð½":3293,"translate":3294,"9999":3295,"tt":3296,"mk":3297,"ÐŁ":3298,"gam":3299,"å¿":3300,"ĠjQuery":3301,"Block":3302,"Sto":3303,"modules":3304,"domain":3305,"stamp":3306,"ĠUS":3307,"Ġoff":3308,"peg":3309,"under":3310,"225":3311,"ãĢĲ":3312,"rial":3313,"IS":3314,"Pop":3315,"ĠCon":3316,"Ġbold":3317,"çº":3318,"cursor":3319,"ãĢĳ":3320,"design":3321,"err":3322,"Ġ@":3323,"ĠĠĠĠĠĠĠĠĠĠĠĠĠĠĠĠĠĠĠĠĠĠĠĠĠĠĠĠĠĠĠ":3324,"util":3325,"ubble":3326,"à¸£":3327,"room":3328,"thread":3329,"van":3330,"zd":3331,"yahoo":3332,"resh":3333,"lia":3334,"CR":3335,"064":3336,"anel":3337,"à«":3338,"plugins":3339,"åĵģ":3340,"vd":3341,"zM":3342,"=\"(":3343,"Set":3344,"Array":3345,"ish":3346,"Off":3347,"DB":3348,"Ġease":3349,"uld":3350,"national":3351,"Banner":3352,"ĠĠĠĠĠĠĠĠĠĠĠĠĠĠĠĠĠĠĠĠĠĠĠĠĠĠĠĠĠĠĠĠĠĠĠĠĠ":3353,"chi":3354,"YS":3355,"ĠÐ¼":3356,"Index":3357,"Request":3358,"ç½ĳ":3359,"lf":3360,"æĥ":3361,"favicon":3362,"lapse":3363,"ÑĢÐµ":3364,"hn":3365,"Â¡":3366,"keyword":3367,"ES":3368,"]||":3369,"ĠBe":3370,"108":3371,"yZ":3372,"Ġtd":3373,"ev":3374,"%\"":3375,"Ġcolumn":3376,"bbs":3377,"Ġ17":3378,"?(":3379,"107":3380,"Ġhide":3381,"Share":3382,"ĠAn":3383,"cle":3384,"åİ":3385,"lM":3386,"json":3387,"253":3388,"collection":3389,"æİ":3390,"chooser":3391,"crop":3392,"digital":3393,"stop":3394,"æĢ":3395,"aol":3396,"trigger":3397,"å¹´":3398,"ç«":3399,"ire":3400,"wy":3401,"Ġ};":3402,"come":3403,"xhr":3404,"çĻ":3405,".\"":3406,"Ġsizes":3407,"\"],\"":3408,"point":3409,"ĠLe":3410,"fit":3411,"className":3412,"fusion":3413,"Ø³Øª":3414,"ouse":3415,"WQ":3416,"components":3417,"Down":3418,"ĠÐ½Ð°":3419,"rss":3420,"170":3421,"pol":3422,"æĶ":3423,"mv":3424,"ĠFor":3425,"åĳ":3426,"travel":3427,"128":3428,"ãĥ«":3429,"ãĥ©":3430,"LO":3431,"lider":3432,"other":3433,"uro":3434,"ÙĨØ¯":3435,"ami":3436,"éĹ":3437,"113":3438,"ross":3439,"onom":3440,"ife":3441,"gp":3442,"ernal":3443,"hY":3444,"update":3445,"visibility":3446,"speed":3447,"Ġsmall":3448,"wdG":3449,"sid":3450,"ĠEND":3451,"bind":3452,"witter":3453,"Î¯":3454,"ĉĉĉĉĉĉĉ":3455,"Ġau":3456,"wM":3457,"QE":3458,"jpeg":3459,"è¦":3460,"001":3461,"ĠSh":3462,"IM":3463,"Ġ()":3464,"ÃĴ":3465,"1000":3466,"gov":3467,"mas":3468,"Bar":3469,"ãĥ»":3470,"Ġ18":3471,"æ³":3472,"lib":3473,"ron":3474,"Pg":3475,"Action":3476,"æŃ":3477,"\":[\"":3478,"333":3479,"çľ":3480,"Default":3481,"ãĥª":3482,"Ġcategory":3483,"ãģ¨":3484,"âĢĺ":3485,"ĠØ®":3486,"yreg":3487,"Ġxmlns":3488,",&":3489,"ople":3490,"ï½Ĺ":3491,"trend":3492,"offer":3493,"State":3494,"curity":3495,"los":3496,"zu":3497,"NTE":3498,"Ġcellspacing":3499,"119":3500,"kb":3501,"å¯":3502,"]</":3503,"sn":3504,"uration":3505,"fly":3506,"Ð¸Ðº":3507,"é¡":3508,"');\">":3509,"ala":3510,"Lm":3511,"join":3512,"mega":3513,"Ġapp":3514,"ather":3515,"tele":3516,"fer":3517,"dule":3518,"navbar":3519,"ĠĉĉĉĉĉĠĉĉĉĉĉ":3520,"bad":3521,"ÑĦ":3522,"war":3523,"best":3524,"gan":3525,"à¯":3526,"lated":3527,"munity":3528,"tex":3529,"protocol":3530,"til":3531,"()}":3532,"stock":3533,"WE":3534,"Ġ></":3535,"|</":3536,"PA":3537,"vY":3538,"Rl":3539,"/'":3540,"produ":3541,"Media":3542,"bund":3543,"vn":3544,"exp":3545,"Ø§Ø¨":3546,"gal":3547,"ift":3548,"Ġuse":3549,"Ġman":3550,"bk":3551,"TYPE":3552,"Ġbody":3553,"lp":3554,"fx":3555,"IL":3556,"281":3557,"mini":3558,"ĠX":3559,"igation":3560,"Jm":3561,"Count":3562,"BL":3563,"Ny":3564,"inset":3565,"XXXX":3566,")[":3567,"118":3568,"Ra":3569,"dep":3570,"DQo":3571,"stance":3572,"amazon":3573,"Res":3574,"Pub":3575,"Ã¶":3576,"æł":3577,"photos":3578,"ĠAd":3579,"flash":3580,"blo":3581,"pointer":3582,"fill":3583,"Tab":3584,"??":3585,"dp":3586,"tm":3587,"qa":3588,")();":3589,"roup":3590,"frame":3591,"537":3592,"102":3593,"æĻ":3594,"fri":3595,"Ġbutton":3596,"jewelry":3597,"less":3598,"popular":3599,"ĠGoogle":3600,"ä¸Ĭ":3601,"Get":3602,"lNT":3603,"Show":3604,"Start":3605,"ĠØ±":3606,"ĠĉĉĉĉĉĉĠĉĉĉĉĉĉ":3607,"kes":3608,"dra":3609,"children":3610,"èĢ":3611,"xz":3612,"We":3613,"han":3614,"ias":3615,"Reg":3616,"wb":3617,"utf":3618,"ĠÏĦ":3619,"Mobile":3620,"Ġge":3621,"ned":3622,"exports":3623,"gc":3624,"é¢":3625,"ZS":3626,"/#":3627,"CL":3628,"ĠØ¯Ø±":3629,"tifi":3630,"avatar":3631,"Read":3632,"circ":3633,"CF":3634,"Ġnormal":3635,"commen":3636,"163":3637,"ssl":3638,"Ġcellpadding":3639,"Oi":3640,"outube":3641,"checked":3642,"quee":3643,"168":3644,"Ø§Ø³":3645,"rate":3646,"sd":3647,",_.":3648,"HRpb":3649,"better":3650,"ĠMan":3651,"landing":3652,"apply":3653,"wc":3654,"Â¤":3655,"ĠEnd":3656,"ĠĠĠĉĉ":3657,"UE":3658,"IiB":3659,"\\'":3660,"ãģĻ":3661,"Ġour":3662,"=\"\"></":3663,"ving":3664,")&&":3665,"uble":3666,"bubble":3667,"unit":3668,"Height":3669,"ney":3670,"ĠØ¬":3671,"Nv":3672,"wide":3673,"Ġwp":3674,"à¹Ģ":3675,"Ġpe":3676,"anti":3677,"çĶ¨":3678,"Ġinter":3679,"illi":3680,"Layer":3681,"ify":3682,"ost":3683,"Î¼":3684,"tyle":3685,"ful":3686,"\\\">":3687,"æľĪ":3688,"DF":3689,"Î¬":3690,"AM":3691,"ages":3692,"ness":3693,"ah":3694,"XJ":3695,"Ġshare":3696,"ĠHe":3697,"CQkJ":3698,"And":3699,"Ġhome":3700,"BF":3701,"+=":3702,"tin":3703,"iss":3704,"Ġscroll":3705,"cut":3706,"dir":3707,"getTime":3708,"LC":3709,"Footer":3710,"700":3711,"\",[":3712,"ond":3713,"Ser":3714,"Zm":3715,"Add":3716,"],\"":3717,"Eng":3718,"kin":3719,"gos":3720,"JT":3721,"Shop":3722,")||":3723,"lus":3724,"çĶŁ":3725,"flu":3726,"à¥ĩ":3727,"Ġdatetime":3728,"Ġ22":3729,"280":3730,"Ø§Ùĩ":3731,"cket":3732,"multi":3733,"Hand":3734,"/'>":3735,"Ġna":3736,"æĽ":3737,"Ġhave":3738,"posts":3739,"404":3740,"vcHRpb":3741,"gbx":3742,"attachment":3743,"ĠĠĠĠĠĠĠĠĠĠĠĠĠĠĠĠĠĠĠĠĠĠĠĠĠĠĠĠĠĠĠĠĠĠĠ":3744,"Ġwill":3745,"pes":3746,")}),":3747,"film":3748,"navigator":3749,"Zy":3750,"ĠMay":3751,"Ð¾Ð³":3752,"gid":3753,"Ġhreflang":3754,"ffe":3755,"templates":3756,"Ø§Ø²":3757,"Ass":3758,"ĠĠĉĉĉĉĉĉ":3759,"264":3760,"Ġlazy":3761,"wn":3762,"Pi":3763,"floor":3764,"210":3765,"à¤°":3766,"USAA":3767,"Ġ--></":3768,"UK":3769,"ants":3770,"('/":3771,"browse":3772,"dash":3773,"review":3774,"Ġĉĉĉĉĉĉĉĉĉĉĉĉĉĉĉĉĉĉĉĉĉĉĉĉ":3775,"cker":3776,"Over":3777,"Clo":3778,"æ±":3779,"Ġ$('#":3780,"android":3781,"FR":3782,"tbody":3783,"à¦°":3784,"HE":3785,"rapper":3786,"âĢ¬":3787,"Images":3788,"Ð¸Ðµ":3789,"=\"#\">":3790,"XB":3791,"spa":3792,"orld":3793,"áĥ":3794,"addClass":3795,"velo":3796,"msg":3797,"Ùī":3798,"æ¬":3799,"sz":3800,"æľī":3801,"delay":3802,"ç¾İ":3803,"KC":3804,"Ġsearch":3805,"à¸ģ":3806,"Ta":3807,"233":3808,"####":3809,"!!":3810,"\"},":3811,"Please":3812,"é¦":3813,"stream":3814,"gY":3815,"Ġtime":3816,"bn":3817,"biB":3818,"sole":3819,"ĠAll":3820,"define":3821,"scribe":3822,"Ġpointer":3823,"As":3824,"gaz":3825,"your":3826,"tro":3827,"xi":3828,"Check":3829,"çĲ":3830,"ĠĠĠĠĠĠĠĠĠĠĠĠĠĠĠĠĠĠĠĠĠĠĠĠĠĠĠĠĠĠĠĠĠĠĠĠĠĠĠĠĠĠĠĠĠ":3831,"ker":3832,"Å¡":3833,"advice":3834,"å¥³":3835,"Ġevent":3836,"Cont":3837,"109":3838,"ration":3839,"\"!=":3840,"PH":3841,"Enter":3842,"dr":3843,"cmV":3844,"GA":3845,"Head":3846,"redirect":3847,"\"><!--":3848,"==\"":3849,"tis":3850,"tivi":3851,"substring":3852,"fac":3853,"IA":3854,"Post":3855,"Ð¾Ñģ":3856,"6666":3857,"women":3858,"Ġnode":3859,"æĭ":3860,"notic":3861,"lash":3862,"mU":3863,"cos":3864,"270":3865,"Per":3866,"Right":3867,"Color":3868,"Bu":3869,"ffffff":3870,"Article":3871,"ence":3872,"settings":3873,"ifi":3874,"More":3875,"admin":3876,"local":3877,"127":3878,"cloudfront":3879,"AAAAAA":3880,"Jy":3881,";/":3882,"<![":3883,"marquee":3884,"param":3885,"ç´":3886,"'),":3887,"../":3888,"lgbx":3889,"pack":3890,"graph":3891,"pha":3892,"âĢĵ":3893,"parse":3894,"xL":3895,"æ´":3896,"betterT":3897,"ĠĠĠĠĠĠĠĠĠĠĠĠĠĠĠĠĠĠĠĠĠĠĠĠĠĠĠĠĠĠĠĠĠĠĠĠĠĠĠĠĠ":3898,"ĠĉĉĠĠĠ":3899,"167":3900,"TION":3901,"dows":3902,"Ġ40":3903,"Ġcorrespon":3904,"ontal":3905,"ĠÙ¾":3906,"Ġnews":3907,"sl":3908,"ìĿ":3909,"DOC":3910,"Ġque":3911,"May":3912,"gl":3913,"stagram":3914,"Target":3915,"switch":3916,"chor":3917,"è¨":3918,"ues":3919,"æŀ":3920,"/.":3921,"assword":3922,"Ø¶":3923,"euro":3924,"111":3925,"rection":3926,"ĠCO":3927,"daily":3928,"jd":3929,"ãģ¾":3930,"Ġcorresponding":3931,"Doc":3932,"ĥ½":3933,"âĢĮ":3934,"quality":3935,"alert":3936,"());":3937,"inclu":3938,"izontal":3939,"ÛĮØ¯":3940,"oks":3941,"nect":3942,"Ġ×":3943,"Jo":3944,"ource":3945,"Var":3946,"cmd":3947,"Ġsrcset":3948,"ĠĉĉĠĉ":3949,"900":3950,"Bg":3951,"ä¸į":3952,"mbol":3953,"ener":3954,"DATA":3955,"=\"+":3956,"aw":3957,"fun":3958,"ĠĉĉĠĉĉĉ":3959,"tlet":3960,"even":3961,"apps":3962,"ptcha":3963,"åħ¨":3964,"valid":3965,"raph":3966,"ĠâĢª":3967,"credit":3968,"190":3969,"ula":3970,")};_.":3971,"è£":3972,"=_":3973,"arn":3974,"Ġàª":3975,"3333":3976,"Property":3977,"stack":3978,"Ġabout":3979,"Ð¸Ð»":3980,"gbqf":3981,"verti":3982,"website":3983,"resize":3984,"Ðļ":3985,"265":3986,"ING":3987,"med":3988,"player":3989,"ĠØ¢":3990,"Ġop":3991,"ĠonClick":3992,"Ð½Ð¾":3993,"à¹Ī":3994,"Nl":3995,"tools":3996,"Ġ300":3997,"bur":3998,"DOCTYPE":3999,"å®¶":4000,"rome":4001,"ï½Ĺï½Ĺ":4002,"ĠĉĉĉĉĉĉĉĉĠĉĉĉĉĉĉĉĉĉĠĉĉĉĉĉĉĉĉĠĉĉĉĉĉĉĉĉĉ":4003,"Carousel":4004,"$('#":4005,"tik":4006,"Ġdel":4007,"nh":4008,"lyph":4009,"165":4010,"onomy":4011,"nes":4012,">.":4013,"embed":4014,"HOO":4015,"Ġbro":4016,"350":4017,"å°ı":4018,"sell":4019,"ĠĉĠĉĠĉĠĉ":4020,"{{":4021,"////////////////":4022,"ãĢĮ":4023,"ÛĮÙĨ":4024,"wLj":4025,"cacheid":4026,"Â·":4027,"rency":4028,"door":4029,"Ġform":4030,"gir":4031,"126":4032,"*/":4033,"agen":4034,"ÙĪÙĨ":4035,"ents":4036,"hk":4037,"ÏĮ":4038,"Style":4039,"ĠTr":4040,");}":4041,"Ãł":4042,"ĠÑĤ":4043,"plbefore":4044,"arrowimplbefore":4045,"handle":4046,"Ġtry":4047,"AHOO":4048,"youtube":4049,"ĠĉĠ":4050,"Fg":4051,"surance":4052,"Ð°Ñı":4053,"kar":4054,"æīĭ":4055,"ii":4056,"106":4057,"ãģ¯":4058,"lm":4059,"gor":4060,")&&(":4061,"partner":4062,"foto":4063,"Java":4064,"NO":4065,"Yz":4066,"Cre":4067,"]+":4068,"pw":4069,"team":4070,"merce":4071,"HD":4072,"CI":4073,"å¦":4074,"SP":4075,"rosoft":4076,"rec":4077,"ED":4078,"lag":4079,"series":4080,"HA":4081,"mac":4082,"fice":4083,"MO":4084,"Body":4085,"Gu":4086,"åķ":4087,"stru":4088,"Size":4089,"Place":4090,"timestamp":4091,"èĩ":4092,"sort":4093,"EF":4094,"340":4095,"\":[]":4096,"132":4097,"åŃĲ":4098,"Sa":4099,"124":4100,"ãĢį":4101,"tire":4102,"vg":4103,"çĤ":4104,"qi":4105,"âĢ¢":4106,"here":4107,"\\\":\\\"":4108,"à¸ĩ":4109,"jx":4110,"kw":4111,"Ġsection":4112,"AAA":4113,"tainment":4114,"collapse":4115,"stu":4116,"155":4117,"angle":4118,"features":4119,"Ġonmouseover":4120,"gar":4121,"Ġë":4122,">\\":4123,"Group":4124,"CDATA":4125,"entered":4126,"728":4127,"today":4128,"latest":4129,"RT":4130,"tels":4131,"____":4132,"Auto":4133,")){":4134,"ĴÃĲ":4135,"ves":4136,"utor":4137,"ĠSta":4138,"pubads":4139,"grey":4140,"Ba":4141,"Ġ19":4142,"model":4143,"à¥į":4144,"à§ĩ":4145,"AU":4146,"figcaption":4147,"taxonomy":4148,"185":4149,"CD":4150,"quick":4151,"invest":4152,"fm":4153,"ica":4154,"247":4155,"Ġbg":4156,"pY":4157,"ĠÐ±":4158,"ĠYou":4159,"å¤©":4160,"365":4161,"136":4162,"ÂłÃĳ":4163,"external":4164,"lw":4165,"Ġti":4166,"Ġstart":4167,"prev":4168,"company":4169,"baby":4170,"eacute":4171,"ķãĤ":4172,"rank":4173,"')[":4174,"allback":4175,"wg":4176,"queue":4177,"plan":4178,"acion":4179,"æľº":4180,"bin":4181,"VV":4182,"ird":4183,"8217":4184,"bundles":4185,"ĠNew":4186,"ĠMore":4187,"property":4188,"urniture":4189,"namic":4190,"make":4191,"quare":4192,"lnk":4193,"èģ":4194,"XY":4195,"gray":4196,"Ġpor":4197,"ç¬":4198,"Ġimage":4199,"summary":4200,"signup":4201,"1605":4202,"103":4203,"shot":4204,"((":4205,"134":4206,"ndar":4207,"Ġgo":4208,"zL":4209,"biz":4210,"215":4211,"pid":4212,"spot":4213,"Ns":4214,"BJ":4215,"dk":4216,"260":4217,")}}":4218,"230":4219,"Path":4220,"lG":4221,"Ġfill":4222,"ãģ£":4223,"Ġproduct":4224,"Pr":4225,"ÙĪÙĦ":4226,"175":4227,"ĠSo":4228,"ĠØ§ÙĦÙħ":4229,"éĸ":4230,"Ġcheck":4231,"haber":4232,"Help":4233,"\":\"\\":4234,"system":4235,"Ġ===":4236,"234":4237,"cks":4238,"green":4239,"ĠDi":4240,"Ġcode":4241,"åĭ":4242,"139":4243,"gtm":4244,"åī":4245,"åħ¬":4246,"urs":4247,"éĿ":4248,"Vo":4249,"Field":4250,"\">&#":4251,"à§į":4252,"/-":4253,"AAE":4254,"aside":4255,"Ġ$(\"#":4256,"sited":4257,"spor":4258,"Can":4259,"é«":4260,"register":4261,"Ġpr":4262,"ĠBo":4263,"imple":4264,"Ø§Ùģ":4265,"Qg":4266,"slot":4267,"ĠĠĠĠĠĠĠĠĠĠĠĠĠĠĠĠĠĠĠĠĠĠĠĠĠĠĠĠĠĠĠĠĠĠĠĠĠĠ":4268,"face":4269,"æ¸¸":4270,"ĠĠĠĠĠĠĠĠĠĠĠĠĠĠĠĠĠĠĠĠĠĠĠĠĠĠĠĠĠĠĠĠĠĠĠĠĠĠĠĠĠĠĠĠĠĠĠĠĠ":4271,"Vali":4272,"zt":4273,"remember":4274,"è¡Į":4275,"removeClass":4276,"allen":4277,"reci":4278,"buttons":4279,"Homepage":4280,"LL":4281,"chase":4282,"Ġwhite":4283,"ĠYour":4284,"038":4285,"ley":4286,"ront":4287,"é£":4288,"Lower":4289,"ĠĠĠĠĠĠĠĠĠĠĠĠĠĠĠĠĠĠĠĠĠĠĠĠĠĠĠĠĠĠĠĠĠĠĠĠĠĠĠĠĠĠĠĠĠĠĠĠĠĠĠĠĠĠĠĠĠĠĠĠĠĠĠĠĠĠĠĠĠĠĠĠĠĠĠĠĠĠĠĠĠĠĠĠĠĠĠĠĠĠĠĠĠĠĠĠĠĠĠĠĠĠĠĠĠĠĠĠĠĠĠĠĠĠĠĠĠĠĠĠĠĠĠĠĠĠĠĠĠĠĠĠĠĠĠĠĠĠĠĠĠĠĠĠĠĠĠĠĠĠĠĠĠĠĠĠĠĠĠĠĠĠĠĠĠĠĠĠĠĠĠĠĠĠĠĠĠĠĠĠĠĠĠĠĠĠĠĠĠĠĠĠĠĠĠĠĠĠĠĠĠĠĠĠĠĠĠĠĠĠĠĠĠĠĠĠĠĠĠĠĠĠĠĠĠĠĠĠĠĠĠĠĠĠĠĠĠĠĠĠĠĠĠĠĠĠĠĠĠĠĠĠĠĠĠĠĠĠĠĠĠĠĠĠĠĠĠĠĠĠĠĠĠĠĠĠĠĠĠĠĠĠĠĠĠĠĠĠĠĠĠĠĠĠĠĠĠĠĠĠĠĠĠĠĠĠĠĠĠĠĠĠĠĠĠĠĠĠĠĠĠĠĠĠĠĠĠĠĠĠĠĠĠĠĠĠĠĠĠĠĠĠĠĠĠĠĠĠĠĠĠĠĠĠĠĠĠĠĠĠĠĠĠĠĠĠĠĠĠĠĠĠĠĠĠĠĠĠĠĠĠĠĠĠĠĠĠĠĠĠĠĠĠĠĠĠĠĠĠĠĠĠĠĠĠĠĠĠĠĠĠĠĠĠĠĠĠĠĠĠĠĠĠĠĠĠĠĠĠĠĠĠĠĠĠĠĠĠĠĠĠĠĠĠĠĠĠĠĠĠĠĠĠĠĠĠĠĠĠĠĠĠĠĠĠĠĠĠĠĠĠĠĠĠĠĠĠĠĠĠĠĠĠĠĠĠĠĠĠĠĠĠĠĠĠĠĠĠĠĠĠĠĠĠĠĠĠĠĠĠĠĠ":4290,"deg":4291,"137":4292,"pli":4293,"375":4294,"IP":4295,"Slot":4296,"vy":4297,"Â§":4298,"inst":4299,"ĠPri":4300,"Option":4301,"ĠApp":4302,"ÐĴ":4303,"Ġ200":4304,"ãĤ¿":4305,"super":4306,"cion":4307,"music":4308,"kan":4309,"vw":4310,"VS":4311,"mr":4312,"],[":4313,"æĸĩ":4314,"åł":4315,"gine":4316,"IR":4317,"ãģĭ":4318,"cio":4319,"138":4320,"report":4321,"opin":4322,"plafter":4323,"arrowimplafter":4324,"Ġeven":4325,")|":4326,"ĠIs":4327,"brands":4328,"Ġim":4329,"mag":4330,"285":4331,"188":4332,"EG":4333,"173":4334,"ãĤī":4335,"selector":4336,"acon":4337,"ony":4338,"Ġlevel":4339,"\":[{\"":4340,"empty":4341,"Ġarticle":4342,"ĠEx":4343,"::-":4344,"UN":4345,"âĢ¦":4346,"ĠĠĠĠĠĠĠĠĠĠĠĠĠĠĠĠĠĠĠĠĠĠĠĠĠĠĠĠĠĠĠĠĠĠ":4347,"pics":4348,"UI":4349,"Ð¾Ð¹":4350,"gress":4351,"UTF":4352,"Wrapper":4353,"æĦ":4354,"china":4355,"éĺ":4356,"visited":4357,"174":4358,"ham":4359,"çķ":4360,"æ²":4361,"nolog":4362,"conom":4363,"}],":4364,"Ð¸Ð¹":4365,"stats":4366,"vs":4367,"Account":4368,"gf":4369,"club":4370,"FB":4371,"')\"":4372,"156":4373,"Mark":4374,"zr":4375,"personal":4376,"ÅĤ":4377,"HB":4378,"='{\"":4379,"times":4380,"ĠNo":4381,"Ãª":4382,"Ġone":4383,"à¹Ģà¸":4384,"vate":4385,"129":4386,"isode":4387,"yb":4388,"Navigation":4389,"laim":4390,"224":4391,"upport":4392,"LowerCase":4393,"Pa":4394,"Ġformat":4395,"Ðł":4396,"pm":4397,"Ġ+=":4398,"ling":4399,"tablet":4400,"Ug":4401,"WS":4402,"AK":4403,"LD":4404,"elve":4405,"lug":4406,"insurance":4407,"ĠDo":4408,"ĠÐ¿ÑĢ":4409,"toLowerCase":4410,"OK":4411,"Ġmain":4412,"194":4413,"Ġ'/":4414,"ĠNews":4415,"real":4416,"ped":4417,"horizontal":4418,"236":4419,"Zi":4420,"circle":4421,"NTENT":4422,"204":4423,"jc":4424,"formance":4425,"Ð»Ð°":4426,"Ã³n":4427,"à¸±":4428,"ilable":4429,"Aw":4430,"']);":4431,"HQ":4432,"Ø±Ø¯":4433,"ged":4434,"viewport":4435,"%,":4436,"ider":4437,"480":4438,">-->":4439,"You":4440,"uo":4441,"uss":4442,"337":4443,"205":4444,"subnav":4445,"æľ¬":4446,"rgba":4447,"<\\/":4448,"tails":4449,"vil":4450,"contents":4451,"lyphicon":4452,"GR":4453,"asset":4454,"cap":4455,"Ġser":4456,"åŁ":4457,"Ġlt":4458,"ĠĠĠĠĠĠĠĠĠĠĠĠĠĠĠĠĠĠĠĠĠĠĠĠĠĠĠĠĠĠĠĠĠĠĠĠĠĠĠ":4459,"ats":4460,"LT":4461,"ä¾":4462,"571":4463,"Photo":4464,"ĠÐ·":4465,"ols":4466,"xhtml":4467,"adv":4468,"opy":4469,"152":4470,"stories":4471,"('<":4472,"standard":4473,"weet":4474,"Vi":4475,"Ġtypeof":4476,"195":4477,"dest":4478,"symbol":4479,"ĠØŃ":4480,"Ġcre":4481,"sex":4482,"Na":4483,"cher":4484,"<=":4485,"lr":4486,"ical":4487,"åĪĨ":4488,"KT":4489,"ora":4490,"zen":4491,"EE":4492,"ague":4493,"ãĤĬ":4494,"ÐºÐ°":4495,"master":4496,"='+":4497,"154":4498,"Î¿Ïħ":4499,"fade":4500,"Passwd":4501,"lz":4502,"ãĥ³ãĥ":4503,"duration":4504,"sil":4505,"actions":4506,"counter":4507,"Ø±Ø§ÙĨ":4508,"Ġà¸":4509,"Int":4510,"ald":4511,"locale":4512,"Â¦":4513,"Ax":4514,"DD":4515,"à¦¿":4516,",-":4517,"lands":4518,"rk":4519,"cas":4520,"%</":4521,"Ġrgb":4522,"hs":4523,"Ġet":4524,"Ø±ÙĬ":4525,".\",\"":4526,"dos":4527,"esti":4528,"555":4529,"Äĥ":4530,"Pjx":4531,"305":4532,"=\\":4533,"Il":4534,"ĠAnd":4535,"ĠĠĠĠĠĠĠĠĠĠĠĠĠĠĠĠĠĠĠĠĠĠĠĠĠĠĠĠĠĠĠĠĠĠĠĠĠĠĠĠĠĠĠĠĠĠĠĠĠĠĠĠĠĠĠĠĠĠĠĠĠĠĠĠĠĠĠĠ":4536,"ĠHome":4537,"Ġuser":4538,"spect":4539,"=\"&":4540,"åĩº":4541,"Ġcursor":4542,"ender":4543,"bj":4544,"Submit":4545,"GQ":4546,"æľĢ":4547,"ĠCol":4548,"Ġautocomplete":4549,"Section":4550,"food":4551,"Ġ'',":4552,"Ġmobile":4553,"vL":4554,"ĠRo":4555,"zed":4556,"Ġenter":4557,"Ġonline":4558,"YWx":4559,"HT":4560,"cri":4561,"Fil":4562,"pg":4563,"Mar":4564,"ä¼ļ":4565,"pad":4566,"stor":4567,"cept":4568,"306":4569,"EA":4570,"Ġ[];":4571,"lj":4572,"Ġ);":4573,"à¹ī":4574,"Ġaccount":4575,"0281":4576,"quote":4577,"192":4578,"ĠService":4579,"getAttribute":4580,"vision":4581,"delete":4582,"mium":4583,"è¶":4584,"das":4585,"Ġ800":4586,"çĶ»":4587,"uf":4588,"Jzc":4589,"run":4590,"week":4591,"dm":4592,"177":4593,"opt":4594,"ĠTi":4595,"rel":4596,"Ġpara":4597,"Nvb":4598,"codeUR":4599,"çīĪ":4600,"\":{":4601,"($":4602,"bri":4603,"odd":4604,"Spe":4605,"Ġgoogle":4606,"Logo":4607,"tY":4608,"380":4609,"ĠĠĠĠĉĉ":4610,"disc":4611,"server":4612,"Ġvisible":4613,"ï¼Ī":4614,"Ġini":4615,"\")}":4616,"gest":4617,"310":4618,"JzcD":4619,"unce":4620,"hash":4621,"169":4622,"0645":4623,"Dis":4624,"Ġsans":4625,"304":4626,"auty":4627,"ĠOnline":4628,"money":4629,"cra":4630,"BY":4631,"san":4632,"Ñī":4633,"OW":4634,"Ġ21":4635,"222":4636,"SD":4637,"oman":4638,"nodeType":4639,"uh":4640,"(#":4641,"Btn":4642,"arti":4643,"ĠØ£":4644,"suc":4645,"wx":4646,"ØĮ":4647,"-\\":4648,"yi":4649,"appendChild":4650,"ï¼ī":4651,"Lz":4652,"centered":4653,"666":4654,"Ġsu":4655,"FO":4656,"ï¼Ł":4657,"ãĥŃ":4658,"--><":4659,"jobs":4660,"Yy":4661,"nc":4662,"2000":4663,"fron":4664,"tation":4665,"ĠØ¨Ùĩ":4666,"EC":4667,"require":4668,"ĠTV":4669,"ience":4670,"via":4671,"Ðŀ":4672,"Bh":4673,"untry":4674,"Uni":4675,"identi":4676,"uF":4677,"Iy":4678,"Ġany":4679,"ric":4680,"\">[":4681,"\">(":4682,"params":4683,"mor":4684,"Oj":4685,"ÐµÐ¼":4686,"è¾":4687,"okies":4688,"ãĤ«":4689,"hid":4690,"lvb":4691,"Tra":4692,"Zj":4693,"ĠÄĳ":4694,"Øº":4695,"expan":4696,"Document":4697,"guide":4698,"nu":4699,"lifeevents":4700,"Contact":4701,"movies":4702,"Fwww":4703,"Sw":4704,"total":4705,"Ci":4706,"Area":4707,"pear":4708,"bit":4709,"innerHTML":4710,"ben":4711,"229":4712,"Number":4713,"ãĤ³":4714,"æĺ¯":4715,"158":4716,"Ġ\"/":4717,"lipsis":4718,"forums":4719,"ĠUSAA":4720,"WD":4721,"commerce":4722,"lie":4723,"Bl":4724,"random":4725,"SA":4726,"BO":4727,"lines":4728,"kz":4729,"dem":4730,"etch":4731,"ZC":4732,"208":4733,"Ġmaxlength":4734,"stra":4735,"adcast":4736,"dam":4737,"ĠĉĠĠĠĠĠĠĠĠ":4738,"133":4739,"round":4740,"wv":4741,"ÙĬÙĨ":4742,"<!":4743,"spi":4744,"die":4745,"XN":4746,"elvetica":4747,"Visi":4748,"248":4749,"Ġ\"\";":4750,"235":4751,"ĠÙĤ":4752,"Ð¾Ð±":4753,"%}.":4754,"298":4755,"Ln":4756,"ading":4757,"rive":4758,"scr":4759,"Ġfieldset":4760,"ining":4761,"KG":4762,"èĤ":4763,"ãĥ¬":4764,"à¸¡":4765,"Ġ--><":4766,"èª":4767,"har":4768,"agement":4769,"mal":4770,"marketing":4771,"ĠĉĉĠ":4772,"double":4773,"keywords":4774,"yui":4775,"ICom":4776,"editor":4777,"720":4778,"badge":4779,"Ġrow":4780,"Ġcolumns":4781,"kg":4782,"sig":4783,"æ¯":4784,"jia":4785,"147":4786,"outer":4787,"tie":4788,"ream":4789,"Ã£":4790,"pagin":4791,"Å¾":4792,"244":4793,"privacy":4794,"goods":4795,"dialog":4796,"ancial":4797,"IComponent":4798,"Mon":4799,"codeURIComponent":4800,"mos":4801,"å¸Ĥ":4802,"184":4803,"Ä±n":4804,"157":4805,"para":4806,"ili":4807,"à¥Ģ":4808,"Ġvali":4809,"tarea":4810,"Ġ%":4811,"olution":4812,"noindex":4813,"Ġ'';":4814,"bil":4815,"à¸¢":4816,"tice":4817,"sky":4818,"]\"":4819,"wvb":4820,"Jl":4821,"201":4822,"Ã«":4823,"Ġ2015":4824,"399":4825,"Port":4826,"291":4827,"ations":4828,"275":4829,"ĠTe":4830,"Position":4831,"JavaScript":4832,"dian":4833,"ĠØ§ÛĮ":4834,"Ġ36":4835,"related":4836,"Ly":4837,":.":4838,"199":4839,"Ġfree":4840,"vas":4841,"159":4842,"Msg":4843,"ich":4844,"299":4845,"\")[":4846,"Ġwidget":4847,"ãĤ·":4848,"Fa":4849,"=\"./":4850,"MM":4851,"Ġinstance":4852,"ĠĉĉĉĠĉĉĉĉ":4853,"213":4854,"lation":4855,"dition":4856,"Zhb":4857,"build":4858,"çĶµ":4859,"ise":4860,"187":4861,"fixed":4862,"Â¨":4863,"ĠWe":4864,"dynamic":4865,"Ġcache":4866,"Ġsho":4867,"loc":4868,"166":4869,"éĩĳ":4870,"season":4871,"ĠCONTENT":4872,"ÎŃ":4873,"Îĳ":4874,"setTimeout":4875,"Uy":4876,"å£":4877,"Ð°Ðº":4878,"elem":4879,"ĠUn":4880,"214":4881,"ĠQ":4882,"288":4883,"\"!==":4884,"SV":4885,"ãĤ°":4886,"mFs":4887,"deli":4888,"Ø§ÙĪ":4889,":$":4890,"164":4891,"ÙĦÛĮ":4892,"ä¸ĭ":4893,"non":4894,"zm":4895,"ple":4896,"scripts":4897,"sen":4898,"Exp":4899,"sha":4900,"Zl":4901,"){.":4902,"ĠĉĉĉĉĉĉĉĠĉĉĉĉĉĉĉ":4903,"Ø§Ø¹":4904,"cky":4905,"Ġpull":4906,"ret":4907,"ãģĬ":4908,"196":4909,"Ġwas":4910,"ÆĴÃĲ":4911,"198":4912,"hal":4913,"ÃĲÆĴÃĲ":4914,"122":4915,"Links":4916,"Ġvertical":4917,"unch":4918,"annel":4919,"obj":4920,"Ik":4921,"wood":4922,"/*":4923,"fic":4924,"Ġ...":4925,"PL":4926,"Ġ})();":4927,"=''":4928,"ios":4929,"Ġ$('.":4930,"entre":4931,"153":4932,"ÑĢÑĥ":4933,"Uz":4934,"178":4935,"shion":4936,"shopping":4937,"ditional":4938,"Store":4939,"TW":4940,"ĠFo":4941,"ãĥĹ":4942,"246":4943,"browser":4944,":\"\\":4945,"Â®":4946,"imgs":4947,"XV":4948,"program":4949,"Ġservice":4950,"ries":4951,"extend":4952,"boot":4953,"bir":4954,"237":4955,"Ġcar":4956,"ç¥":4957,"nor":4958,"143":4959,"ames":4960,"290":4961,"instagram":4962,"ĠOf":4963,"ç¬¬":4964,"æµ·":4965,"]),":4966,"rub":4967,"ĠĠĠĠĠĠĠĠĠĠĠĠĠĠĠĠĠĠĠĠĠĠĠĠĠĠĠĠĠĠĠĠĠĠĠĠĠĠĠĠĠĠĠĠĠĠĠĠĠĠĠĠĠ":4968,"ĠFacebook":4969,"Custom":4970,"ris":4971,"+%":4972,"what":4973,"à¤¿":4974,"ĠĠĠĠĠĠĠĠĠĠĠĠĠĠĠĠĠĠĠĠĠĠĠĠĠĠĠĠĠĠĠĠĠĠĠĠĠĠĠĠĠĠĠĠĠĠĠĠĠĠĠĠĠĠĠĠĠ":4975,"separ":4976,"long":4977,"ros":4978,"Sk":4979,"loaded":4980,"cg":4981,"ĠVideo":4982,"Hx":4983,"secure":4984,"adobe":4985,"attachEvent":4986,"kon":4987,"356":4988,"Facebook":4989,"Ġcolspan":4990,"If":4991,"å¤ļ":4992,"1999":4993,"topics":4994,"Iw":4995,"yan":4996,"wear":4997,"bG":4998,"bul":4999,"226":5000,"}@":5001,"ĠFe":5002,"yt":5003,"uper":5004,"ays":5005,"erms":5006,"uv":5007,"HM":5008,"Us":5009,"573":5010,"AV":5011,"Panel":5012,"330":5013,"èĪ":5014,"NCg":5015,"256":5016,"')\">":5017,"Ġsa":5018,"ile":5019,"zer":5020,"572":5021,"nm":5022,"Î³":5023,"ense":5024,"Ġpop":5025,"itok":5026,"flyout":5027,"ÄŁ":5028,"×Ļ":5029,"Ġ28":5030,"åĬł":5031,"captcha":5032,"allenge":5033,"square":5034,"success":5035,"åıĳ":5036,"root":5037,"----------------":5038,"14836":5039,"Spry":5040,"Ġ\"\",":5041,"pinterest":5042,"chen":5043,"Ġ90":5044,"Ð¸Ð¸":5045,"){}":5046,"hich":5047,"295":5048,"221":5049,"Play":5050,"Ġ\"+":5051,"stars":5052,"avi":5053,"!\"":5054,"subscribe":5055,"405":5056,"fw":5057,"Ġinstanceof":5058,"ax":5059,"ĠSans":5060,"required":5061,"Ð¾Ðº":5062,"ä½ľ":5063,"rols":5064,"ĠØ¨Ø±":5065,"çŁ":5066,"ĠThis":5067,"à¸§":5068,"OG":5069,"rad":5070,"ĠĠĠĠĠĉĉ":5071,"Ġ;":5072,"inc":5073,"äº§":5074,"rm":5075,"à¸µ":5076,"oi":5077,"207":5078,"weather":5079,"Comp":5080,"dz":5081,"XT":5082,"Ã±":5083,"bre":5084,"Select":5085,"UL":5086,"Ġago":5087,"ĠUp":5088,"ĠĠĠĠĠĠĠĠĠĠĠĠĠĠĠĠĠĠĠĠĠĠĠĠĠĠĠĠĠĠĠĠĠĠĠĠĠĠĠĠĠĠĠĠĠĠĠ":5089,"ral":5090,"Ul":5091,"äºĭ":5092,"IB":5093,"QW":5094,"west":5095,"373":5096,"tification":5097,"Am":5098,"Ġnowrap":5099,"....":5100,"aea":5101,"Cg":5102,"ĠIm":5103,"Ġdefault":5104,"stry":5105,"rak":5106,"Ġfooter":5107,"gular":5108,"EB":5109,"asy":5110,"MP":5111,"community":5112,"Cur":5113,"trending":5114,"arts":5115,"ĀĀ":5116,"tify":5117,"ĠÙħÙĨ":5118,"vider":5119,"$(\"#":5120,"ä¿¡":5121,"MY":5122,"à¸¥":5123,"SW":5124,"iler":5125,"Watch":5126,"finance":5127,"Ġ(!":5128,"bmJzcD":5129,"bel":5130,"fast":5131,"nowrap":5132,"It":5133,"Mode":5134,"ĠYAHOO":5135,"YXJ":5136,"åľ¨":5137,"ttp":5138,"currency":5139,"Rk":5140,"shortcut":5141,"ij":5142,"Ġ{{":5143,"238":5144,"done":5145,"Ð¾ÑģÑĤ":5146,"With":5147,"Trans":5148,"53727":5149,"ĠÑĥ":5150,"Â©":5151,"ÐµÐ¹":5152,"])}":5153,"ification":5154,"239":5155,"pal":5156,"cards":5157,"Ø«":5158,"people":5159,"ĠĉĠĉĉ":5160,"NG":5161,"response":5162,"186":5163,"smbmJzcD":5164,"ours":5165,"254":5166,"Ġmon":5167,"xe":5168,"need":5169,"ãĢĢ":5170,"bW":5171,"dj":5172,"two":5173,"Ġ60":5174,"ÐµÐ´":5175,"ãĥ¡":5176,"uml":5177,"bum":5178,"sys":5179,"Ay":5180,"ÐĲ":5181,"Ġfil":5182,"guid":5183,"asi":5184,"spacer":5185,"\"}}":5186,"ãĤ¸":5187,"åĬ¨":5188,"sur":5189,"raquo":5190,"Ä°":5191,"ÐĤ":5192,"à¤¨":5193,"tivity":5194,"Ġq":5195,"Tracker":5196,"ĠWeb":5197,"ÂĲ":5198,"ÐĿ":5199,"progress":5200,"highlight":5201,"é«ĺ":5202,"çĪ":5203,"rb":5204,"Ġhelp":5205,"ÙĪÙħ":5206,"TH":5207,"ian":5208,"={};":5209,"esp":5210,"Widget":5211,"ona":5212,"Ġtc":5213,"Â¶":5214,"chat":5215,"ä¸ļ":5216,"interi":5217,"ador":5218,"Agent":5219,"à¸Ķ":5220,"ç®":5221,"(-":5222,"CN":5223,"Kw":5224,"temp":5225,"%\">":5226,"REUM":5227,"Learn":5228,"Ya":5229,"èĥ½":5230,"176":5231,"Ðľ":5232,"iddle":5233,"Ø°":5234,"nable":5235,"Ġelement":5236,"åľ°":5237,"may":5238,"dimen":5239,"?:":5240,"spec":5241,"à¯į":5242,"ãĥŀ":5243,"Ġframe":5244,"far":5245,"wed":5246,"Ġbo":5247,"206":5248,"ç¤":5249,"Ġface":5250,"ZXJ":5251,"navi":5252,"Ġtable":5253,"prevent":5254,"furniture":5255,"228":5256,"xa":5257,"blur":5258,"Map":5259,"Cart":5260,"227":5261,"Ġmy":5262,"cour":5263,"GFu":5264,"èĬ":5265,"edit":5266,"189":5267,"Ã´":5268,"bh":5269,"335":5270,"Feature":5271,"strap":5272,"'t":5273,"ĠĠĉĉĉĉĉĉĉ":5274,"ãģĵ":5275,"football":5276,"||!":5277,"ĠInter":5278,"Zh":5279,";'><":5280,"rp":5281,"Ġcont":5282,"257":5283,"ince":5284,"æģ":5285,"dWU":5286,"sans":5287,"xb":5288,"Ãº":5289,"ased":5290,"fluid":5291,"wt":5292,"\",\"_":5293,"Selector":5294,"shared":5295,"ez":5296,"refer":5297,"ners":5298,"Ð¸Ð°Ð»":5299,"term":5300,"Rp":5301,"month":5302,"ines":5303,"hel":5304,"Ġqu":5305,"lazyload":5306,"é¦ĸ":5307,"=\"../":5308,"coup":5309,"ÙĦÙħ":5310,";'>":5311,"WT":5312,"uz":5313,"Ġreg":5314,"èĩª":5315,"èī":5316,"æĪĳ":5317,"serie":5318,"æĥħ":5319,"Ġboth":5320,"245":5321,"Æ°":5322,"ĠĠĠĠĠĠĠĠĠĠĠĠĠĠĠĠĠĠĠĠĠĠĠĠĠĠĠĠĠĠĠĠĠĠĠĠĠĠĠĠĠĠĠ":5323,"most":5324,"byline":5325,"plat":5326,"10000":5327,"219":5328,"pull":5329,"ugh":5330,"ĠØ§Ø²":5331,"hh":5332,"slice":5333,"omen":5334,"Ele":5335,"What":5336,"ÚĨ":5337,"olicy":5338,")+":5339,"abbr":5340,"ĠArray":5341,"Î®":5342,"setAttribute":5343,"Ð»Ñı":5344,"xM":5345,"=-":5346,"Uw":5347,"ĠÏĥ":5348,"ĠCar":5349,"Ji":5350,"ken":5351,"fon":5352,"Ø±Ø¨":5353,">=":5354,"gw":5355,"Ġpassword":5356,"resiz":5357,"dana":5358,"à¸´":5359,"FE":5360,"Ge":5361,"åģ":5362,";_.":5363,"dator":5364,"444":5365,"English":5366,"just":5367,"çĤ¹":5368,"737":5369,"274":5370,"cnt":5371,"kZ":5372,"rotate":5373,"2012":5374,"Ġunder":5375,"Ġra":5376,"got":5377,"lio":5378,"=[];":5379,"äºĨ":5380,"edge":5381,"Domain":5382,"thers":5383,"sity":5384,"Ġ23":5385,"Ġvo":5386,"149":5387,"Ab":5388,"vZ":5389,"fonts":5390,"teen":5391,"sug":5392,"ĠID":5393,"verse":5394,"_%":5395,"LG":5396,"ĠArial":5397,"lik":5398,"Bot":5399,"spy":5400,"åķĨ":5401,"Ġheader":5402,"lNDE":5403,"gazine":5404,"RA":5405,"åħ¥":5406,"Display":5407,"ulture":5408,"general":5409,"ĠWCM":5410,"strip":5411,"Ġinitial":5412,"Ġcurrent":5413,"ebay":5414,"pur":5415,"india":5416,"BT":5417,"éħ":5418,"ĠÙĬ":5419,"307":5420,"smo":5421,"Ġarial":5422,"slideshow":5423,"Handler":5424,"åĥ":5425,"çŃ":5426,"Ġem":5427,"fieldset":5428,"print":5429,"Ġonmouseout":5430,"279":5431,"LS":5432,"icrosoft":5433,"216":5434,"console":5435,"åŃ¦":5436,"lGOD":5437,"Mu":5438,"qq":5439,"yre":5440,"Ġclo":5441,"velop":5442,"296":5443,"='//":5444,"documentElement":5445,"performance":5446,"lvbj":5447,"ÐµÐº":5448,"++){":5449,"Ori":5450,"validate":5451,"ĠFree":5452,";)":5453,"Ġdir":5454,"Fr":5455,"WW":5456,"Ġnow":5457,"Ġonmousedown":5458,"DQoJ":5459,"zcz":5460,"ãĤµ":5461,"met":5462,"look":5463,"ĠÙģÙĬ":5464,"fut":5465,"Ġstat":5466,"ante":5467,"About":5468,"à±":5469,"ĠØ§Ø³":5470,"deals":5471,"Ġui":5472,"Ġ{};":5473,"cross":5474,"\",\"\",\"":5475,"ima":5476,"pane":5477,"ident":5478,"=[],":5479,"compare":5480,"preventDefault":5481,"reviews":5482,"history":5483,"obs":5484,"Zn":5485,"Ġpub":5486,"ĠAl":5487,"kx":5488,"Ð°Ð¼":5489,"ĉĉĉĉĉĉĉĉĉĉĉĉĉĉĉĉĉĉĉĉĉĉĉĉĉĉĉĉĉĉĉĉĉĉĉĉĉĉĉĉĉĉĉĉĉĉĉĉĉĉĉĉĉĉĉĉĉĉĉĉĉĉĉĉ":5490,"VR":5491,"íķ":5492,"qc":5493,"oa":5494,"Validation":5495,"Js":5496,"unk":5497,"EK":5498,"kl":5499,"exec":5500,"VD":5501,"é»":5502,"ãĤĵ":5503,"éĥ":5504,"Ø¨Ø±":5505,"shipping":5506,"empla":5507,"calendar":5508,"040":5509,"ados":5510,"Ġcached":5511,"ĠLink":5512,"æ¥":5513,"ington":5514,"vert":5515,"æĸ¹":5516,"Star":5517,"tips":5518,"ates":5519,"æĽ´":5520,"à¤Ĥ":5521,"249":5522,"{&":5523,"åĢ":5524,"ICA":5525,"fashion":5526,"ible":5527,"ym":5528,"ends":5529,"jq":5530,")/":5531,"ĠviewBox":5532,"ican":5533,"discount":5534,"Analytics":5535,"year":5536,"ÑģÑĤÐ²":5537,"connect":5538,"gun":5539,"Ġaddress":5540,"aj":5541,"Ġxlink":5542,"çµ":5543,"èĭ":5544,"vote":5545,"Ã£o":5546,")}.":5547,"ĠĉĉĉĉĠĉĉĉĉĉ":5548,"Free":5549,"0631":5550,"Ġam":5551,"ĠĉĉĉĠĉĉ":5552,"FFFFFF":5553,"apis":5554,"çĲĨ":5555,"cessories":5556,"km":5557,"179":5558,"×ķ":5559,"ãĤĤ":5560,"frames":5561,"clip":5562,"'});":5563,"ØªØ±":5564,"hape":5565,"PU":5566,"197":5567,"wan":5568,"209":5569,"=\"[":5570,"Nh":5571,"outline":5572,"è·":5573,"è½¦":5574,"Cl":5575,"ÐµÑģ":5576,"Gl":5577,"=\"\";":5578,"},{}],":5579,"comm":5580,"){_.":5581,"smart":5582,"wal":5583,"lvbiB":5584,"BS":5585,"lege":5586,"267":5587,"newsletter":5588,"OST":5589,"âĢł":5590,"serve":5591,"Ġweb":5592,"Ġ35":5593,"smbmJzcDsmbmJzcD":5594,"mFsdWU":5595,"Ġselected":5596,"acc":5597,"gation":5598,"uest":5599,"illa":5600,"Fin":5601,"eg":5602,"ades":5603,"omn":5604,"ĠUs":5605,"EO":5606,"rence":5607,"Ð¸Ð²":5608,"ĠĠĠĠĠĠĉ":5609,"297":5610,"ĠÐ³":5611,"ike":5612,"AAAAAAAAAAAAAAAA":5613,"345":5614,"ified":5615,"[\\":5616,"/_/":5617,"çĦ":5618,"lead":5619,"GO":5620,"Ru":5621,"bat":5622,"395":5623,"Ġ32":5624,"DX":5625,");_.":5626,"cv":5627,"406":5628,"DO":5629,"aci":5630,"wf":5631,"anking":5632,"308":5633,"450":5634,"æĮ":5635,"ess":5636,"Ġ\\\"":5637,"1024":5638,"ulo":5639,"pati":5640,"HVl":5641,"gamenu":5642,"pZ":5643,"Ïī":5644,"Ġtrack":5645,"linked":5646,"rev":5647,"throw":5648,"BI":5649,"love":5650,"unter":5651,"121":5652,"qb":5653,"depth":5654,"NREUM":5655,"ÐĶ":5656,"qr":5657,"ç¨":5658,"KE":5659,"Ġbreak":5660,"TS":5661,"serv":5662,"ÄĻ":5663,"UP":5664,"lGODlh":5665,"token":5666,"sun":5667,"åĽ¾":5668,"'\"":5669,"Change":5670,"YXNz":5671,"/></":5672,"ÂłÃĲ":5673,"ĠInsurance":5674,"KS":5675,"security":5676,"Config":5677,"Mod":5678,"258":5679,"lis":5680,"save":5681,"203":5682,"Ġpi":5683,"Ġ!==":5684,"Phone":5685,"uYn":5686,"band":5687,"ĠĠĠĠĠĠĠĠĠĠĠĠĠĠĠĠĠĠĠĠĠĠĠĠĠĠĠĠĠĠĠĠĠĠĠĠĠĠĠĠĠĠĠĠĠĠĠĠĠĠĠĠĠĠĠĠĠĠĠĠĠĠĠĠĠĠĠĠĠĠĠĠ":5688,"vt":5689,"))}":5690,"Ø§Ø¦":5691,"Ġfl":5692,"4787":5693,"Ġund":5694,"Ġres":5695,"cing":5696,"Ġversion":5697,"actu":5698,"Twitter":5699,"336":5700,"male":5701,"à¦¨":5702,"scho":5703,"leaf":5704,"ati":5705,"={},":5706,"kk":5707,"Ġlocal":5708,"aring":5709,"UV":5710,"textarea":5711,"Ġgrid":5712,"ãģı":5713,"uM":5714,"Ġlogin":5715,"brary":5716,"some":5717,"ropdown":5718,"****************":5719,"ĠMar":5720,"315":5721,":;\"":5722,"used":5723,"IMG":5724,"nz":5725,"172":5726,"\">|</":5727,"398":5728,"Mouse":5729,"yc":5730,"çī¹":5731,"don":5732,"UF":5733,"Cor":5734,"ush":5735,"uten":5736,"Ġclick":5737,"bla":5738,"pearance":5739,"gz":5740,"Æ·":5741,"ski":5742,"Qb":5743,"338":5744,"Ġrequired":5745,"355":5746,"hile":5747,"Ð½ÑĭÐµ":5748,"cla":5749,"kp":5750,"Ġdu":5751,"tection":5752,"044":5753,"II":5754,"Brand":5755,"Ġlocation":5756,"books":5757,"gm":5758,"354":5759,"ĠEr":5760,"Enable":5761,"Ġinternal":5762,"]]":5763,"loy":5764,"UG":5765,"ĠĠĠĠĠĠĠĠĠĉ":5766,"BAQE":5767,"vious":5768,"question":5769,"ÙĬØ¯":5770,"NwO":5771,"roke":5772,"ZGl":5773,"sso":5774,"æ¼":5775,"\\.":5776,"259":5777,"Ġ26":5778,"Tracking":5779,"QQ":5780,"Ð°Ð¹":5781,"entertainment":5782,"àµ":5783,">');":5784,"Ew":5785,"indows":5786,"ãĢĭ":5787,"FT":5788,"Ġdes":5789,"album":5790,"å¼Ģ":5791,"å®ī":5792,"276":5793,"cator":5794,"but":5795,"Promo":5796,"dh":5797,"copyright":5798,"ategories":5799,"fre":5800,"ffect":5801,"ĠĠĠĠĠĠĠĠĠĠĠĠĠĠĠĠĠĠĠĠĠĠĠĠĠĠĠĠĠĠĠĠĠĠĠĠĠĠĠĠĠĠ":5802,"183":5803,"Ð¸Ð¼":5804,"kh":5805,"278":5806,"Ġ400":5807,"âĢĶ":5808,"ãĤŃ":5809,"atur":5810,"BG":5811,"wdGlvbj":5812,"who":5813,"Pe":5814,"Download":5815,"ults":5816,"ira":5817,"BN":5818,"Yj":5819,"243":5820,"ĠRes":5821,"éŁ":5822,"IV":5823,"ZhbHVl":5824,"284":5825,"Ø¢":5826,"megamenu":5827,"Ym":5828,"ÐµÑĢÐ¸Ð°Ð»":5829,"FL":5830,"mbr":5831,"Version":5832,"å·¥":5833,"enable":5834,"userAgent":5835,"ĠVer":5836,"LDA":5837,"Ġ38":5838,"xhc":5839,"ãĢĬ":5840,"uYnNwO":5841,"pagination":5842,"refe":5843,"ords":5844,"kom":5845,"chant":5846,"æ·":5847,"Ġsur":5848,"This":5849,"Ð¢":5850,"ĠĠĠĠĠĠĠĠĠĠĠĠĠĉ":5851,"separator":5852,"tiny":5853,"Â¥":5854,"libs":5855,"slug":5856,"Ġri":5857,"bia":5858,"åĲĪ":5859,"dv":5860,"329":5861,"arc":5862,"shift":5863,"Ġfin":5864,"customer":5865,"289":5866,"eni":5867,"ov":5868,"ĠâĢĵ":5869,"cite":5870,"nology":5871,"ĠÂ«":5872,"ÐºÐ¸":5873,"subtitle":5874,"DTD":5875,"Ġ72":5876,"ffer":5877,"Teaser":5878,"Î´":5879,"}),":5880,"Ġopen":5881,"inue":5882,"First":5883,"zoom":5884,"vies":5885,"Input":5886,"TO":5887,"jbGF":5888,"CS":5889,"\":\"\\/":5890,"amsung":5891,"Ġ250":5892,"\":{},\"":5893,"Ġ--><!--":5894,"vip":5895,"223":5896,"lbn":5897,"277":5898,"Î¹Îº":5899,"Ġ80":5900,"Ads":5901,"eVar":5902,"Column":5903,"268":5904,"212":5905,"columns":5906,"logos":5907,"Nm":5908,"cali":5909,"Cw":5910,"Holder":5911,"kY":5912,"Hot":5913,"ĠPage":5914,"rag":5915,"bp":5916,"vailable":5917,"ĠÐ¡":5918,"portlet":5919,"åĴ":5920,"Ġlarge":5921,"sal":5922,"goog":5923,"×¨":5924,"XQ":5925,"noticias":5926,"Eg":5927,"Your":5928,"yy":5929,"ruit":5930,"cine":5931,"hj":5932,"ĉĉĉĉĉĉĉĉĉ":5933,"xc":5934,"Äħ":5935,"mate":5936,"arrowdown":5937,"users":5938,"sns":5939,"Ġcustom":5940,"mission":5941,"Ke":5942,"ĠLa":5943,"ĠÚ¯":5944,"DM":5945,"Ġstatus":5946,"herit":5947,"woff":5948,"Ġder":5949,"sitem":5950,"nounce":5951,"Br":5952,"see":5953,"Qz":5954,"indu":5955,"ALAAAAAA":5956,"Ġĉĉĉĉĉĉĉĉĉĉĉĉĉĉĉĉĉĉĉ":5957,"ÛĮØ±":5958,"ãģį":5959,"interiors":5960,"platform":5961,"Slide":5962,"lGODlhAQ":5963,"Ø§ÙĤ":5964,"Dom":5965,"0026":5966,"(.":5967,"Part":5968,"tx":5969,"tage":5970,"Xa":5971,"æĹ¶":5972,"Ġher":5973,"çģ":5974,"æķ°":5975,"Hg":5976,"Ġerror":5977,"asket":5978,"éķ":5979,"374":5980,"\\\"><":5981,"å§":5982,"recommen":5983,"ways":5984,".<":5985,":(":5986,"æĴ":5987,"mobi":5988,"bor":5989,"bon":5990,"rough":5991,"Stor":5992,"nap":5993,"enabled":5994,"TT":5995,"avings":5996,"}\"":5997,"Ø§ÙĦÙħ":5998,"tirement":5999,"Ġfull":6000,"tz":6001,"ÎŁ":6002,"dataLayer":6003,"solu":6004,"çī©":6005,"lari":6006,"Ġ<!--<":6007,"Back":6008,"ĠĉĠĠĠĠĠĠĠ":6009,";,&#":6010,"Hy":6011,"seo":6012,"Big":6013,"ĠĠĠĠĉĉĉ":6014,"sep":6015,"storage":6016,"tube":6017,"intro":6018,"rtl":6019,"Ñį":6020,"ZV":6021,"uan":6022,"newby":6023,"åĲį":6024,"usa":6025,"ĠPre":6026,"project":6027,"Slider":6028,"jbGFzcz":6029,"ative":6030,"Ġfeature":6031,"houseinteriors":6032,"newbyhouseinteriors":6033,"uth":6034,"ĠCan":6035,"Ġother":6036,"Ġasync":6037,"tali":6038,"151":6039,"Arial":6040,"simple":6041,"Ġhere":6042,"ier":6043,"EL":6044,"142":6045,"Vz":6046,"ampion":6047,"ĉĠĉ":6048,"131":6049,"digitalspy":6050,"AY":6051,"Wrap":6052,"tur":6053,"Scroll":6054,"00000":6055,"wdGlvbiB":6056,"CW":6057,"frontend":6058,"Ġtransition":6059,"prise":6060,"287":6061,"rf":6062,"UD":6063,"Vud":6064,"ortg":6065,"tika":6066,"ZGF":6067,"286":6068,"ctrl":6069,"Ġà¤ķ":6070,"underline":6071,"ario":6072,"XMLH":6073,"mcontent":6074,"ska":6075,"pv":6076,"kn":6077,"Ġbu":6078,"una":6079,"render":6080,"litary":6081,"ç²":6082,"RS":6083,"tan":6084,"ugu":6085,"Close":6086,"anime":6087,"Ġaccess":6088,"tus":6089,"NU":6090,"blogs":6091,"ĠĠĠĠĠĠĉĉ":6092,"poster":6093,"addService":6094,"flags":6095,"recent":6096,"landscape":6097,"Live":6098,"hiddenMessage":6099,"ĠUni":6100,"Ġonerror":6101,"ãĥĸ":6102,"ĠÏĢ":6103,"aler":6104,"1604":6105,"à¸ļ":6106,"Oy":6107,"Ġ$.":6108,"mvpd":6109,"toolbar":6110,"åĮº":6111,"Fs":6112,"áŀ":6113,"hm":6114,"ĠĠĠĠĠĠĠĠĠĠĠĠĠĠĠĠĠĠĠĠĠĠĠĠĠĠĠĠĠĠĠĠĠĠĠĠĠĠĠĠĠĠĠĠĠĠĠĠĠĠĠĠĠĠĠĠĠĠĠĠĠĠĠĠĠĠĠĠĠĠĠĠĠĠĠĠ":6115,"ags":6116,"vir":6117,"subject":6118,"tour":6119,"iphone":6120,"wordpress":6121,"Ġ150":6122,"bug":6123,"oh":6124,"lished":6125,"]]>":6126,"Ġdis":6127,"ç©":6128,"qw":6129,"Ø¥":6130,"accessories":6131,"timi":6132,"570":6133,"cgi":6134,"lator":6135,"timing":6136,"defineSlot":6137,"æį":6138,"End":6139,"Small":6140,"esk":6141,"aid":6142,"Ui":6143,"Su":6144,"Ø¸":6145,"fresh":6146,"Ġho":6147,"á»ĩ":6148,"èĲ":6149,"Ix":6150,"includes":6151,"/+":6152,"æĪĲ":6153,"å¿ĥ":6154,"éĢļ":6155,"IHZhbHVl":6156,"ena":6157,"980":6158,"pat":6159,"utils":6160,"Online":6161,"004":6162,"162":6163,"DS":6164,"\\&":6165,"tj":6166,"ÃĲÅ¾":6167,"àª¾":6168,"force":6169,"Light":6170,"tk":6171,"kwid":6172,"ĠGu":6173,"æı":6174,"tains":6175,"Je":6176,"istration":6177,"576":6178,"fid":6179,"ãĤ¨":6180,"vv":6181,"ĠĠĠĠĠĠĠĠĠĠĠĠĠĠĠĠĠĠĠĠĠĠĠĠĠĠĠĠĠĠĠĠĠĠĠĠĠĠĠĠĠĠĠĠĠĠĠĠĠĠĠĠĠĠĠĠĠĠĠĠĠ":6182,"ieds":6183,"bootstrap":6184,"aws":6185,"0648":6186,"lida":6187,"boo":6188,"BAAE":6189,"193":6190,"Ġbgcolor":6191,"ĠÐŁ":6192,"xxx":6193,"onto":6194,"Ġ'<":6195,"Ġnumber":6196,"269":6197,"uegos":6198,"vol":6199,"tiv":6200,"ÛĮÙħ":6201,"FA":6202,"294":6203,"ĠTra":6204,"ints":6205,"production":6206,"adi":6207,"policy":6208,"bx":6209,"rend":6210,"NsYXNz":6211,"RO":6212,"ZE":6213,"hic":6214,"Window":6215,"learn":6216,"ging":6217,"Ġread":6218,"Ġalert":6219,"ãĤĮ":6220,"Card":6221,"Thumb":6222,"beacon":6223,"ä¹ĭ":6224,"0646":6225,"ouch":6226,"369":6227,"Ġĉĉĉĉĉĉĉĉĉĉĉĉĉĉĉĉĉĉ":6228,"Ve":6229,"Ġlike":6230,"ring":6231,"sit":6232,"fili":6233,"================================":6234,"akama":6235,"Loaded":6236,"Char":6237,"vat":6238,"370":6239,"yimg":6240,"Manager":6241,"nodeName":6242,"Vk":6243,"åĮħ":6244,"Ðĳ":6245,"toString":6246,"ãĥĭ":6247,"Tri":6248,"ĠÐ°":6249,"xh":6250,"TB":6251,"è°":6252,"elle":6253,"camp":6254,"range":6255,"Ri":6256,"Items":6257,"trackPage":6258,"Blog":6259,"Ò»":6260,"wr":6261,"---":6262,"ä½ĵ":6263,"åĭķ":6264,"RU":6265,"åĿ":6266,"clk":6267,"MB":6268,"æ¡":6269,"mel":6270,"pet":6271,"dev":6272,"042":6273,"è£ħ":6274,"ÙĩØ§":6275,">|</":6276,"fli":6277,"nie":6278,"eno":6279,"394":6280,"lum":6281,"ficial":6282,"ä¸ī":6283,"flat":6284,"titu":6285,"prefix":6286,"327":6287,"Ak":6288,"]*":6289,"Îķ":6290,"amer":6291,"express":6292,"ingle":6293,"ALAAAAAABAAE":6294,"linkedin":6295,"');\"><":6296,"æŁ":6297,"Ġselect":6298,"Bro":6299,"dered":6300,"ÙĬØ±":6301,"ais":6302,"NCgkJ":6303,"217":6304,"listing":6305,"åĨħ":6306,"Privacy":6307,"ÉĻ":6308,"EW":6309,"ination":6310,"ifieds":6311,"reat":6312,"ä»¶":6313,"%{":6314,"'],":6315,"DIV":6316,"Vu":6317,"orite":6318,"005":6319,"lient":6320,"({'":6321,"Ġstar":6322,"RM":6323,"266":6324,"420":6325,"river":6326,"$/":6327,"è²":6328,"ĠPo":6329,"artist":6330,"376":6331,"bet":6332,"Component":6333,"ei":6334,"Ġalf":6335,"348":6336,"ditions":6337,"keyframes":6338,"ctron":6339,"ãģĨ":6340,"970":6341,"ipt":6342,"Ġthan":6343,"Origin":6344,"tore":6345,"éĶ":6346,"Ah":6347,"firm":6348,"lig":6349,"ç±":6350,"Iz":6351,"extra":6352,"textfield":6353,"lean":6354,"IGNsYXNz":6355,"chrome":6356,"Vt":6357,"tml":6358,"clock":6359,"ĠEn":6360,"Zv":6361,"HK":6362,"torrent":6363,"contentbox":6364,"uck":6365,"gdmFsdWU":6366,"session":6367,"manager":6368,"leri":6369,"serialinfo":6370,"ĠĠĠĠĠĠĠĠĉ":6371,"ĠHo":6372,"ception":6373,"VG":6374,"xY":6375,"309":6376,"/><":6377,"iga":6378,"794":6379,"ders":6380,"Ġframeborder":6381,"åı°":6382,"address":6383,"cw":6384,"Enabled":6385,"/\"></":6386,"bject":6387,"à¸«":6388,"bst":6389,"ĠÎº":6390,"BM":6391,"æĪ¿":6392,"Update":6393,"RD":6394,"manga":6395,"364":6396,"cht":6397,"emit":6398,"ÛĮÚ©":6399,"349":6400,"referrer":6401,"]|":6402,"coming":6403,"Microsoft":6404,"lights":6405,"Ġsome":6406,"opinion":6407,"ŀĭ":6408,"çĥ":6409,"ĠĉĉĉĉĉĉĉĉĠĉĉĉĉĉĉĉĉ":6410,"ĠIt":6411,"Hooks":6412,"Ø§Ø¡":6413,"Ġve":6414,"mbers":6415,"dern":6416,"See":6417,"ltr":6418,",{":6419,"Men":6420,"385":6421,"widgets":6422,"els":6423,"eting":6424,"ÙĩØ§ÛĮ":6425,"æľį":6426,"rep":6427,"Ġcontainer":6428,"office":6429,"éĥ¨":6430,"696":6431,"Ð°ÑĤÑĮ":6432,"broadcast":6433,"legal":6434,"ember":6435,"å®ļ":6436,"lifestyle":6437,"cele":6438,"progra":6439,"åħĥ":6440,"jg":6441,"YT":6442,"CK":6443,"Ġmedium":6444,"abe":6445,"pend":6446,"cerpt":6447,"league":6448,"Ph":6449,"ĠØ¨Ø§":6450,"ĠÐ·Ð°":6451,"wards":6452,"768":6453,"slo":6454,"Ġ44":6455,"Ġtheir":6456,"=='":6457,"Assets":6458,"gain":6459,"ĠTop":6460,"Ø¨Ø§Ø±":6461,"hotel":6462,"=\"{{":6463,";:{&":6464,"eq":6465,"Ġĉĉĉĉĉĉĉĉĉĉĉĉĉĉĉĉĉ":6466,"How":6467,"One":6468,"Popup":6469,"Za":6470,"667":6471,"ALAAAAAABAAEAAA":6472,"HL":6473,"ÑģÑı":6474,"Mg":6475,":\\":6476,"Interval":6477,"opyright":6478,"Ġie":6479,"ward":6480,"%{-":6481,"ä½ł":6482,"æ¨":6483,"]><":6484,"Min":6485,"Ġshape":6486,"demand":6487,"Val":6488,"Ïĩ":6489,"readyState":6490,"inte":6491,"ures":6492,"ĠEmail":6493,"reset":6494,"moji":6495,"vm":6496,"ãģĤ":6497,"controls":6498,"ĠFin":6499,"Ġparent":6500,"ample":6501,"Ø§Ø´":6502,"results":6503,"premium":6504,"ersonal":6505,"RF":6506,"å¥½":6507,"refront":6508,"ĠÐ¾ÑĤ":6509,"--></":6510,"ĠWith":6511,">|":6512,"Ġmod":6513,"omniture":6514,"clusive":6515,"kids":6516,"Ġactive":6517,"thumbnails":6518,"alpha":6519,"ttpRequest":6520,"mix":6521,"ÐµÐ²":6522,"direction":6523,"åĻ":6524,"231":6525,"KX":6526,"jm":6527,"EP":6528,"292":6529,"HI":6530,"seg":6531,"141":6532,"NwYW":6533,"ÑģÐµÑĢÐ¸Ð°Ð»":6534,"ĠÙħÛĮ":6535,"Full":6536,"collections":6537,"ĠĉĉĉĉĉĠĉĉĉĉĉĉ":6538,"Ġ'.":6539,"peti":6540,"324":6541,"utes":6542,"Modal":6543,"ĠĉĉĉĉĉĉĉĉĠĉĉĉĉĉĉĉĉĉĠĉĉĉĉĉĉĉĉĠĉĉĉĉĉĉĉĉĉĠĉĉĉĉĉĉĉĉĠĉĉĉĉĉĉĉĉĉĠĉĉĉĉĉĉĉĉĠĉĉĉĉĉĉĉĉĉ":6544,"ĠAccount":6545,"\"Ā":6546,"Function":6547,"ÂŃ":6548,"mens":6549,"ĠNow":6550,"oe":6551,"Own":6552,"pathname":6553,"ograph":6554,"geo":6555,"Ð¸Ð·":6556,"nbc":6557,"gbar":6558,"note":6559,"Ka":6560,"ÎĻ":6561,"mier":6562,"ĠSer":6563,"OV":6564,"readonly":6565,"Products":6566,"Äį":6567,"EV":6568,"XMLHttpRequest":6569,"-[":6570,"Î¹Î±":6571,"shoes":6572,"Ġwhen":6573,"rat":6574,"359":6575,"316":6576,"Yi":6577,"cord":6578,"Ġneed":6579,"MI":6580,"nw":6581,"recipes":6582,"Fj":6583,"çł":6584,"gle":6585,"IGNsYXNzPSJ":6586,"trade":6587,"cx":6588,"owner":6589,"Anim":6590,"terms":6591,"every":6592,"Ġes":6593,"390":6594,"%);":6595,"WU":6596,"AG":6597,"ĠHD":6598,"placement":6599,"èį":6600,"ĠÑĩ":6601,"vin":6602,"Por":6603,"ZR":6604,"genre":6605,"jh":6606,"questions":6607,"pires":6608,"367":6609,"googleapis":6610,"Yn":6611,"ĠMon":6612,"metri":6613,"trackPageview":6614,"limit":6615,"Templa":6616,"encodeURIComponent":6617,"validator":6618,"Ð½ÑĭÐ¹":6619,"Bottom":6620,"Callback":6621,"çīĩ":6622,"é¡µ":6623,"zar":6624,"ÐµÐ½ÑĤ":6625,"Qi":6626,"mount":6627,"cq":6628,"cars":6629,"Ġsocial":6630,"uYnNwOyZ":6631,"Ġmake":6632,"beauty":6633,"percase":6634,"Ql":6635,"888":6636,"ĠTag":6637,"Social":6638,"Ġles":6639,"007":6640,"dw":6641,"ĠÐĴ":6642,"åĮĹ":6643,"Frame":6644,"Mw":6645,"Err":6646,"(?:":6647,"388":6648,"orange":6649,"JP":6650,"atest":6651,"ctions":6652,"nis":6653,"LX":6654,"Ys":6655,"information":6656,"à¸Ĺ":6657,"jr":6658,"creen":6659,"RhdG":6660,"Ġ27":6661,"Î£":6662,"×Ļ×":6663,"=\"&#":6664,"ÙĦÙĬ":6665,"conds":6666,"éĤ":6667,"yx":6668,"Ġ/.":6669,"Cs":6670,"SO":6671,"Ġwho":6672,"åł±":6673,"ĠĉĉĠĠĠĠĠĠĠĠĠĠĠĠĠĠĠĠ":6674,"XP":6675,"ãĥ¥":6676,"à¸ķ":6677,"anchor":6678,"take":6679,"387":6680,"Ġinformation":6681,"Android":6682,"Ġbest":6683,"Bi":6684,"Ðĺ":6685,"=\"\"/>":6686,"Fk":6687,"Qs":6688,"econom":6689,"Business":6690,"nov":6691,",,":6692,"ä¸ª":6693,"åīį":6694,"å¤ĸ":6695,"eW":6696,"334":6697,"sitemap":6698,"tar":6699,"LP":6700,"iso":6701,"232":6702,"uol":6703,"refresh":6704,"åı¯":6705,"ç³":6706,"eria":6707,"Ġmar":6708,"Sec":6709,"Ġoutline":6710,"è³":6711,"akamai":6712,"mR":6713,"0628":6714,"Ġ})(":6715,"ameri":6716,"Gh":6717,"440":6718,"Ø³ÛĮ":6719,"apo":6720,"='#":6721,"ÐµÐ³":6722,"bang":6723,"mir":6724,"ä¸»":6725,"bun":6726,"ĠProduct":6727,"$('.":6728,"arrowup":6729,"Ġupdate":6730,"Qy":6731,"ĠSp":6732,"Global":6733,"Ëľ":6734,"gia":6735,"Ġafter":6736,"pagespeed":6737,"æ´»":6738,"]&&":6739,"chart":6740,"zx":6741,"ccc":6742,"Ġbut":6743,"method":6744,"à¤ķ":6745,"episode":6746,"Acc":6747,"lam":6748,"plies":6749,"ultip":6750,"318":6751,"Game":6752,"forms":6753,"ĠSho":6754,"zb":6755,"éļ":6756,"ĠĠĠĉĉĉ":6757,"ida":6758,"Ð¸Ñĩ":6759,"Num":6760,"Ġĉĉĉĉĉĉĉĉĉĉĉĉĉĉĉĉĉĉĉĉ":6761,"Ā\"Ā":6762,"Ġ(-":6763,"ĠØ²":6764,"Focus":6765,"åĪ©":6766,"Ð¾Ð¿":6767,"PP":6768,"callback":6769,"sticky":6770,"OwnProperty":6771,"boy":6772,"Sho":6773,"displayName":6774,"alk":6775,"NL":6776,"liste":6777,"347":6778,"Ġplay":6779,"ãĥĥãĤ¯":6780,"ĠPr":6781,"æĿ¥":6782,"rakuten":6783,"ick":6784,"zw":6785,"ÂłÃĤ":6786,"swf":6787,"171":6788,"DY":6789,"ÙĪØ²":6790,"covery":6791,"ĠBEG":6792,"lue":6793,"zn":6794,"Ġcookie":6795,"ĠPar":6796,"uix":6797,"ĠĠĠĠĠĠĠĠĠĠĠĠĠĠĠĠĠĠĠĠĠĠĠĠĠĠĠĠĠĠĠĠĠĠĠĠĠĠĠĠĠĠĠĠĠĠĠĠĠĠĠĠĠĠĠĠĠĠĠĠĠĠĠĠĠ":6798,"ĠÎ±":6799,"Ġ75":6800,"ĠBEGIN":6801,"Ð¸Ñģ":6802,"Ġcatch":6803,"tai":6804,"ĠÐļ":6805,"ĠĉĉĉĉĠĉĉĉ":6806,"Ġ\"\"":6807,"roller":6808,"Ġbrowser":6809,"City":6810,"ÙĦÙī":6811,"delivery":6812,"Ġje":6813,"ãĥī":6814,">:":6815,"Ġhead":6816,"entity":6817,"344":6818,"çľĭ":6819,"lux":6820,"Ġnavigation":6821,"âĦ":6822,"ih":6823,"tada":6824,"éĽĨ":6825,"Ġcard":6826,"ĠÑĢÐ°":6827,"è§Ĩ":6828,"YY":6829,";'":6830,"328":6831,"à¤²":6832,"Ġ$(\".":6833,"×ķ×":6834,"Ġslide":6835,"389":6836,"fg":6837,"vari":6838,"third":6839,"Ġload":6840,"Gx":6841,"Ġdie":6842,"Ux":6843,"è©":6844,"iece":6845,"ials":6846,"half":6847,"Ġprice":6848,"interest":6849,"oking":6850,"TAu":6851,"åĻ¨":6852,"United":6853,"ditor":6854,"ĠPlease":6855,"disp":6856,"Fb":6857,"Ġwhat":6858,"xia":6859,"Zg":6860,"368":6861,"Ġlos":6862,"Ġphoto":6863,"397":6864,"blick":6865,"ĠSystem":6866,"ãĥķãĤ":6867,"banking":6868,"bbb":6869,"well":6870,"Row":6871,"Ġmen":6872,"imi":6873,"alo":6874,"doubleclick":6875,"ç¶":6876,"Fu":6877,"Ġindex":6878,"xk":6879,"Ġap":6880,"ĠVi":6881,"Ġcomp":6882,"vide":6883,"ĠQu":6884,"expanded":6885,"RW":6886,"qus":6887,"Nr":6888,"à¥ĭ":6889,"Ġyui":6890,"358":6891,"Es":6892,"èĢħ":6893,"à¸ª":6894,"shows":6895,"zcGFu":6896,"audio":6897,"Cap":6898,"ern":6899,"tiali":6900,"Ïį":6901,"dar":6902,"request":6903,"Ø¯Ø±":6904,"ĠÐ»":6905,"jk":6906,"wiki":6907,"=&#":6908,"bes":6909,"yl":6910,"wen":6911,"]).":6912,"998":6913,"Location":6914,"mask":6915,"birth":6916,"\">ãĢĲ":6917,"tracker":6918,"314":6919,"Ð¾Ð»ÑĮ":6920,"\":[],\"":6921,"AI":6922,"martp":6923,"ãĤª":6924,"hasOwnProperty":6925,"Ã¼r":6926,"hf":6927,"2626":6928,"CU":6929,"CRI":6930,"Bs":6931,"girl":6932,");-":6933,"960":6934,"wm":6935,"inside":6936,"Settings":6937,"å®Ŀ":6938,"uccess":6939,"NY":6940,"role":6941,"ÏĨ":6942,"áº¿":6943,"Ġpanel":6944,"Ready":6945,"disney":6946,"008":6947,"396":6948,"mil":6949,"Jt":6950,"Jv":6951,"Ð°Ð²":6952,"espn":6953,"QU":6954,"1080":6955,"ĠSa":6956,"+/":6957,"lite":6958,"internal":6959,"aren":6960,"sse":6961,"Storage":6962,"same":6963,"puter":6964,"nn":6965,"è¦ģ":6966,"Ġil":6967,"ellipsis":6968,"classifieds":6969,"313":6970,"Ġshould":6971,"arrowleft":6972,"$.":6973,"SY":6974,"rie":6975,"redi":6976,"Obj":6977,"Ã¨":6978,"ĠĠĠĠĠĠĠĠĠĠĠĠĠĠĠĠĠĠĠĠĠĠĠĠĠĠĠĠĠĠĠĠĠĠĠĠĠĠĠĠĠĠĠĠĠĠ":6979,"379":6980,"xlink":6981,"heart":6982,")});":6983,"wz":6984,"kaXY":6985,"IX":6986,"POST":6987,"poly":6988,"aby":6989,"Fy":6990,"hq":6991,"é©":6992,"ĠĠĠĠĠĠĠĠĠĠĠĠĠĠĠĠĠĉ":6993,"arrowright":6994,"supports":6995,"aries":6996,"/-/":6997,"pn":6998,">&#":6999,"Ġ'//":7000,"Ġhover":7001,"701":7002,"Î¤":7003,"TX":7004,"adget":7005,"ĠMark":7006,"omi":7007,"Context":7008,"Ġmay":7009,"uma":7010,"ĠMi":7011,"usicon":7012,"ãģ¡":7013,"lightbox":7014,"statusicon":7015,"Targeting":7016,"clr":7017,"patible":7018,"Ed":7019,"excerpt":7020,"yin":7021,"386":7022,"faq":7023,"zY":7024,"wl":7025,"jor":7026,">>":7027,"glyphicon":7028,"zhi":7029,"tickets":7030,"irt":7031,"Country":7032,"åĮĸ":7033,"lica":7034,"ĠOr":7035,"ĠÃł":7036,"eye":7037,"ught":7038,"Ġstroke":7039,"EQ":7040,"Press":7041,"Cb":7042,"Ko":7043,"gou":7044,"dasher":7045,"utsch":7046,"+(":7047,"ãĥĨ":7048,"648":7049,"Ġvisibility":7050,"anguage":7051,"subcategory":7052,"\">Ö":7053,"Tim":7054,"wish":7055,"staur":7056,"tract":7057,"alla":7058,"Server":7059,"Headline":7060,"tpl":7061,"æĲ":7062,"ÐµÐ»ÑĮ":7063,"293":7064,"Mf":7065,"Db":7066,"rit":7067,"KCQkJ":7068,"161":7069,"Ġbeen":7070,"appearance":7071,"Î±Î¹":7072,"Life":7073,"auk":7074,"RL":7075,"ranking":7076,"æĺŁ":7077,"ĠServices":7078,"Ġfav":7079,"noticia":7080,"_/":7081,"Ġvalid":7082,"Zx":7083,"laimer":7084,"505":7085,"Ø§ÙĬ":7086,"Ġtri":7087,"huff":7088,"Op":7089,"Ġback":7090,"Ã¥":7091,"prefetch":7092,"////////////////////////////////":7093,"made":7094,"ĠĠĠĠĠĉĉĉ":7095,"sharer":7096,"éĻĲ":7097,"å¼ı":7098,"aber":7099,"242":7100,"Jj":7101,">';":7102,"uj":7103,"è¥":7104,"three":7105,"ãĥĲ":7106,"lq":7107,"scar":7108,"lywood":7109,"Ġdirection":7110,"sales":7111,"school":7112,"Å¼":7113,"DOM":7114,"366":7115,"hit":7116,"}</":7117,"Ġworld":7118,"ĠOut":7119,"áº¡":7120,"Ðĵ":7121,"audi":7122,"Ġ\"-":7123,"glo":7124,"(\\":7125,"006":7126,"Company":7127,"rdf":7128,"release":7129,"Ok":7130,"à¦¬":7131,"international":7132,"TL":7133,"know":7134,"days":7135,"Offset":7136,"RC":7137,"Yo":7138,"limg":7139,"Ġhis":7140,"versity":7141,"377":7142,"porate":7143,"tweet":7144,"ĠĊ":7145,"346":7146,"Mt":7147,"ftware":7148,"notification":7149,"AW":7150,"Ġgi":7151,"syn":7152,"cope":7153,"æ³ķ":7154,"grave":7155,"Av":7156,"caret":7157,"statechange":7158,"iw":7159,"ÙħÙĨ":7160,"ĠĉĠĉĠĉ":7161,"Ġ\"></":7162,"Wa":7163,"ĠØ§ÙĨ":7164,"Ġglobal":7165,"Ø§ØŃ":7166,"adsby":7167,"isa":7168,"273":7169,"Jk":7170,"abi":7171,"mera":7172,"Pic":7173,"dns":7174,"tir":7175,"hz":7176,"pick":7177,"Ġ__":7178,"990":7179,"Cc":7180,"0001":7181,"depor":7182,"readystatechange":7183,"182":7184,"colo":7185,"Ġjewelry":7186,"'}":7187,"Ġke":7188,"(_":7189,"organ":7190,"ann":7191,"agent":7192,"992":7193,"War":7194,"aving":7195,"engine":7196,"imagesrc":7197,"çĶ·":7198,"ä¹Ĳ":7199,"adsbygoogle":7200,"Net":7201,"swi":7202,"325":7203,"Cri":7204,"}._":7205,"Ġsk":7206,"Ga":7207,"cie":7208,"stan":7209,"ZSB":7210,"éľ":7211,"cin":7212,"\\\"\\":7213,"Ġph":7214,"laz":7215,"solutions":7216,"Td":7217,"åº¦":7218,"kYX":7219,"dion":7220,"Kf":7221,"Ġele":7222,"ãĥ£":7223,"ĠJe":7224,"Rating":7225,"wwLj":7226,"ĠNav":7227,"317":7228,"ĠĉĉĠĠĠĠĠĠĠ":7229,"Ġyt":7230,"Ð¾Ð¶":7231,"ĠØµ":7232,"Ġusing":7233,"exper":7234,"fier":7235,"ury":7236,"trb":7237,"athli":7238,"ced":7239,"imum":7240,"ĠSpe":7241,"475":7242,"åĦ":7243,"']);\">":7244,"=\"__":7245,"ĠTwitter":7246,"sos":7247,"UY":7248,"mY":7249,"pod":7250,"urnal":7251,"Bw":7252,"à¹Į":7253,"è¶ħ":7254,"HN":7255,"ãģł":7256,"charset":7257,"SG":7258,"191":7259,"ä¿Ŀ":7260,"èı":7261,"ĠGA":7262,"ĠCode":7263,"æ°´":7264,"orth":7265,"ĠPolicy":7266,"Ġsec":7267,"'\">":7268,"Ø§Ø±ÛĮ":7269,"PW":7270,"ods":7271,"ãģķãĤ":7272,"ĠContent":7273,"tL":7274,"ĠĉĉĉĉĉĉĉĉĉĠĉĉĉĉĉĉĉĉĉ":7275,"ĠStart":7276,"éĵ":7277,"windows":7278,"Txt":7279,"From":7280,"uIHZhbHVl":7281,"Ø¦":7282,"vu":7283,"ä¸ĩ":7284,"yd":7285,"hub":7286,"=#":7287,"rows":7288,"Find":7289,"å±±":7290,"creative":7291,"baba":7292,"Ġonload":7293,"Ġgroup":7294,"conversion":7295,"tect":7296,"fession":7297,"Ml":7298,"cen":7299,"VB":7300,"è¢":7301,"Ġ70":7302,"384":7303,"uYnNwOyZuYnNwOyZ":7304,"RG":7305,"Terms":7306,"ely":7307,"å½±":7308,"bem":7309,"å»":7310,"ê°":7311,"tron":7312,"pagead":7313,"dfp":7314,"oro":7315,"Float":7316,"646":7317,"Ġcase":7318,"ĠAdd":7319,"elf":7320,"XF":7321,"cj":7322,"ET":7323,"vac":7324,"MF":7325,"æĬĢ":7326,")||(":7327,"imagen":7328,"WC":7329,"ICAgICAgICAgICAgICAgICAgICAgICAg":7330,"education":7331,"Last":7332,"à¤¸":7333,"hai":7334,"ä¸ŃåĽ½":7335,"multimedia":7336,"Òµ":7337,"ĠÐ¿Ð¾":7338,"alle":7339,"arr":7340,"ĠÐľ":7341,"BLIC":7342,"eee":7343,"uli":7344,"Ġallow":7345,"Ġxt":7346,"Espa":7347,"Ret":7348,"Ġpa":7349,"Ð»Ð¸":7350,"Ð¾Ð³Ð¾":7351,"magazine":7352,"girls":7353,"IDx":7354,"à¹ģ":7355,"woo":7356,"Vp":7357,"ÎµÎ¹":7358,"Ġhow":7359,"Test":7360,"Ð£":7361,"SK":7362,"pool":7363,"à¸Ħ":7364,"ances":7365,"divider":7366,"ê¸":7367,"disqus":7368,"oom":7369,"qz":7370,"Ġscrolling":7371,"CRIPT":7372,"ĠAmer":7373,"Ġchange":7374,"LWNv":7375,"########":7376,"elcome":7377,"ĠÙĩØ§ÛĮ":7378,"versal":7379,"mad":7380,"uer":7381,"çĽ®":7382,"\"));":7383,"bound":7384,"\\/\",\"":7385,"ëĭ":7386,"ĠÑģÑĤ":7387,"iter":7388,"athlitika":7389,"partment":7390,"pra":7391,"ssa":7392,"à¦ķ":7393,"ĠEuro":7394,"jun":7395,"Âģ":7396,"udent":7397,"Ġca":7398,"compo":7399,"326":7400,"Ja":7401,"2011":7402,"Ġsprite":7403,"Â¢":7404,"leader":7405,"378":7406,"Ġ1000":7407,"åįĹ":7408,"screenshot":7409,"animate":7410,"ĠĠĠĠĠĠĠĠĠĠĠĠĠĠĠĠĠĠĠĠĠĠĠĠĠĠĠĠĠĠĠĠĠĠĠĠĠĠĠĠĠĠĠĠĠĠĠĠĠĠĠĠĠĠĠĠĠĠĠĠĠĠĠĠĠĠĠĠĠĠĠĠĠĠĠĠĠĠĠĠ":7411,"irts":7412,"312":7413,"Ø¨Ùĩ":7414,"clean":7415,"Ġkey":7416,"Ġà®":7417,"bron":7418,"research":7419,"XC":7420,"nou":7421,"cancel":7422,"malink":7423,"timeout":7424,"ĠØ§Ø³Øª":7425,"äº¬":7426,"Hover":7427,"ACH":7428,"Fd":7429,"SL":7430,"Uk":7431,"ãĥģ":7432,"Ai":7433,"Æ°á»":7434,"Gi":7435,"272":7436,"ĠÐ¾Ð±":7437,"STA":7438,"ril":7439,"rich":7440,"Ġ(\"":7441,"\"){":7442,"'));":7443,"=\"{&":7444,"Fl":7445,"()},":7446,"Ġglyphicon":7447,"Ð¸ÑĤÑĮ":7448,"Ø±Ùħ":7449,"apan":7450,"xin":7451,"station":7452,"ABA":7453,"Details":7454,"ose":7455,"ä¸ĸ":7456,"1600":7457,"Ġforum":7458,"åĳĬ":7459,"gon":7460,"selida":7461,"575":7462,"è¥¿":7463,"697":7464,"319":7465,"ween":7466,"Flag":7467,"ÙĪÛĮ":7468,"gaze":7469,"vk":7470,"339":7471,"ĠÎ¼":7472,"$(\".":7473,"áº£":7474,"åĪ°":7475,"=/^":7476,"Ġcoords":7477,"zhu":7478,"mast":7479,"protoselida":7480,"beta":7481,"ä¸ĵ":7482,"KL":7483,"sim":7484,"FS":7485,"Ġdomain":7486,"ria":7487,"468":7488,"uite":7489,"åĬĽ":7490,"è¡¨":7491,"NN":7492,"zj":7493,"âĦ¢":7494,"Cr":7495,"709":7496,"Å¡ÃĲ":7497,"æ¬¾":7498,"Bra":7499,"otre":7500,"ĠMath":7501,"hao":7502,"include":7503,"ç¥ŀ":7504,"Vs":7505,"din":7506,"ĠPorn":7507,"åŁİ":7508,"any":7509,"Ġstr":7510,"ride":7511,"ÑĤÐ¾":7512,"Ġsupport":7513,"Ã¡s":7514,"åºĹ":7515,"âĢŀâĢĵ":7516,"âĤ¬âĢĿ":7517,"Ky":7518,"zs":7519,"Ali":7520,"uted":7521,"à¦²":7522,"lent":7523,"Zp":7524,"Emp":7525,"NW":7526,"]&&(":7527,"mise":7528,"ÃĲÅ½":7529,"à¦¤":7530,"009":7531,"autocomplete":7532,"NCi":7533,"ĠĠĠĠĠĠĠĠĠĠĠĠĠĠĠĠĠĠĠĠĠĠĠĠĠĠĠĠĠĠĠĠĠĠĠĠĠĠĠĠĠĠĠĠĠĠĠĠĠĠĠĠĠĠĠĠĠĠĠĠĠĠĠĠĠĠĠĠĠĠĠĠĠĠĠĠĠĠĠĠĠĠĠĠĠĠĠĠĠĠĠĠĠĠĠĠĠĠĠĠ":7534,"Ð¸ÑĢ":7535,"ĠLife":7536,"cycle":7537,"><\\/":7538,"sam":7539,"escape":7540,"Ġpath":7541,"Description":7542,"xw":7543,"FD":7544,"ĠCre":7545,"Ea":7546,"oku":7547,"Ry":7548,"RY":7549,"Ġfile":7550,"åĽŀ":7551,"rac":7552,"hair":7553,"0639":7554,"lore":7555,"ĠError":7556,"tg":7557,"=\"\",":7558,"kate":7559,"ĠPer":7560,"webapp":7561,"canvas":7562,"TC":7563,"ãĥĩ":7564,"rey":7565,"teo":7566,"Active":7567,"LB":7568,"1464":7569,"Ou":7570,"0629":7571,"removeEventListener":7572,"Ġvi":7573,"forgot":7574,"ĠBy":7575,"Cal":7576,"Respon":7577,"Pay":7578,"uff":7579,"åı¸":7580,"hipping":7581,"vertise":7582,"Om":7583,"]}":7584,"concat":7585,"ĠGet":7586,"ĠClo":7587,"ĠYa":7588,"Other":7589,"Jf":7590,"ãĤģ":7591,"740":7592,"vend":7593,"pdf":7594,"created":7595,"Template":7596,"fire":7597,"512":7598,"reve":7599,"Black":7600,"timer":7601,"Chal":7602,"nk":7603,"step":7604,"det":7605,"internet":7606,"ĠĠĠĠĠĉĉĉĉ":7607,"cG":7608,"Ms":7609,"homa":7610,"File":7611,"Rate":7612,"Published":7613,"bnR":7614,"software":7615,"accor":7616,"ĠCenter":7617,"Î¸":7618,"iden":7619,"resolution":7620,"åĴĮ":7621,"Mx":7622,"Vj":7623,"that":7624,"ä¸º":7625,"attribute":7626,"locali":7627,"Ġmi":7628,"Ġinfo":7629,"Jn":7630,"four":7631,"æĪĺ":7632,"ĠOne":7633,"SH":7634,"Xz":7635,"unes":7636,"Qx":7637,"atter":7638,"anta":7639,"Ø§Ø¬":7640,"Ġmost":7641,"tpage":7642,"Profile":7643,"ĠSTA":7644,"Buy":7645,"relic":7646,"éģĵ":7647,"pisode":7648,"ĠĠĠĠĉĉĉĉ":7649,"ille":7650,"010":7651,"havi":7652,"Ġtranslate":7653,"cmp":7654,"jj":7655,"vl":7656,"||_.":7657,"Public":7658,"pers":7659,"Ġ'&":7660,"tree":7661,"Âº":7662,"Health":7663,"Qui":7664,"Touch":7665,"å¨":7666,"ãģĳ":7667,"dan":7668,"ĠĉĉĉĠĠĠ":7669,"outh":7670,"zione":7671,"kI":7672,"trim":7673,"taW":7674,"Ce":7675,"mob":7676,"Types":7677,">[":7678,"lst":7679,"FY":7680,"Af":7681,"egrave":7682,"ĠÛ":7683,"Ġinclu":7684,"lNzQ":7685,"2010":7686,"vesti":7687,"istan":7688,"Ġcal":7689,"lNjU":7690,"hum":7691,"canon":7692,"Qw":7693,"tf":7694,"yen":7695,"ĠPU":7696,"Ġ500":7697,"181":7698,"Module":7699,"feedback":7700,"Ġmt":7701,"777":7702,"paper":7703,"ç§ĳ":7704,"buzz":7705,"446":7706,"NSU":7707,"TG":7708,"Ð¾Ð·":7709,"','','":7710,"IW":7711,"Ġ45":7712,"åĬ¡":7713,"Rs":7714,"ĠÐ´Ð»Ñı":7715,"hostname":7716,"à¤¤":7717,"å¹¿":7718,"caps":7719,"ĠĠĠĠĠĠĠĠĠĠĠĠĠĠĠĠĠĠĠĠĠĠĠĠĠĠĠĠĠĠĠĠĠĠĠĠĠĠĠĠĠĠĠĠĠĠĠĠĠĠĠĠĠĠĠĠĠĠĠĠĠĠĠĠĠĠĠĠĠ":7720,"/=":7721,"DC":7722,"hg":7723,"IO":7724,"æľŁ":7725,"Ha":7726,"550":7727,"PM":7728,"ĠØ§ÙĦØ£":7729,"osh":7730,"ilder":7731,"301":7732,"wk":7733,"Ġoption":7734,"cDo":7735,"Ġmust":7736,"Medi":7737,"IK":7738,"onreadystatechange":7739,"åĸ":7740,"why":7741,"HomePage":7742,"ford":7743,"ĠĠĠĠĠĠĠĠĠĠĠĠĉ":7744,"Ġpw":7745,"Ġden":7746,"ÙĦÙĪØ¯":7747,"Ø¯Ø§ÙĨ":7748,"comic":7749,"æĢ§":7750,"lect":7751,"ampa":7752,"è´Ń":7753,"mai":7754,"262":7755,"Parent":7756,"Aler":7757,"656":7758,"574":7759,"pril":7760,"Detail":7761,"éĿ¢":7762,"onclick":7763,"mote":7764,"TOP":7765,"Ġ''":7766,"announce":7767,";_":7768,"newrelic":7769,"tique":7770,"ãĤ¦":7771,"665":7772,"},{&":7773,"Cd":7774,"Next":7775,"activity":7776,".$_":7777,"Options":7778,"ĠĉĉĉĉĉĉĠĉĉĉĉĉ":7779,"lastpost":7780,"Ġfr":7781,"Sy":7782,"GET":7783,"ĠSearch":7784,"Ġsecond":7785,"keyCode":7786,"scrollTop":7787,"+-":7788,"251":7789,"ç¦":7790,"Wi":7791,"ql":7792,"riend":7793,"dropbox":7794,"æ¶":7795,"raft":7796,"OU":7797,"1200":7798,"å¹³":7799,"Services":7800,"èµ·":7801,"mh":7802,"kYXRh":7803,"tual":7804,"ĠĠĠĠĠĠĠĠĠĠĠĠĠĠĠĠĠĠĠĠĠĠĠĠĠĠĠĠĠĠĠĠĠĠĠĠĠĠĠĠĠĠĠĠĠĠĠĠĠĠĠĠĠĠ":7805,"ulta":7806,"uber":7807,"ographic":7808,"Ġ29":7809,"xf":7810,"ĠØ§ÙĦØ¹":7811,"addthis":7812,"Np":7813,"Ġass":7814,".\">":7815,"lub":7816,"sie":7817,"Ø¯ÛĮ":7818,"ĠTube":7819,"ĠGe":7820,"icid":7821,"867":7822,"HZ":7823,"america":7824,"Ð¸Ð´":7825,"technology":7826,"Ð°Ñģ":7827,"JA":7828,"inPlace":7829,"Ã©s":7830,"ĠReg":7831,"Ġlog":7832,"corner":7833,"Table":7834,"loan":7835,"aliz":7836,"Sans":7837,"grade":7838,"where":7839,"ĠImage":7840,"ĠPM":7841,"åĥı":7842,"kc":7843,"asa":7844,"è±":7845,"motor":7846,"æĺİ":7847,"culture":7848,"Ġevery":7849,"buh":7850,"HH":7851,"JSON":7852,"illion":7853,"MTk":7854,"ãĥĥãĥĪ":7855,"Logon":7856,"cDovL":7857,"aku":7858,"Ú©Ø³":7859,"hZ":7860,"ĠĠĠĠĠĠĠĠĠĠĠĠĠĠĠĠĠĠĠĠĠĠĠĠĠĠĠĠĠĠĠĠĠĠĠĠĠĠĠĠĠĠĠĠĠĠĠĠĠĠĠ":7861,"parseInt":7862,"fen":7863,")<":7864,"Book":7865,"Mm":7866,"istory":7867,"CP":7868,"onerror":7869,"åħ³":7870,"MW":7871,"859":7872,"answer":7873,"Render":7874,"tivo":7875,"Ġexper":7876,"ìĿ´":7877,"ĠÐł":7878,"ĠPhoto":7879,"516":7880,"abc":7881,"dil":7882,"ÏĦÎ¿":7883,"bill":7884,"Ġits":7885,"ç³»":7886,"Forum":7887,"oy":7888,"Ġstory":7889,"æĪı":7890,"8211":7891,"ĠØ±ÙĪ":7892,"à²":7893,"Ġremove":7894,"lance":7895,"ĠÎµ":7896,"politics":7897,"respond":7898,"UH":7899,"ãĥ³ãĥĪ":7900,"())":7901,"Kz":7902,"bay":7903,"=\"/\"":7904,"Ġltr":7905,"unds":7906,"RhdGE":7907,"dies":7908,"///":7909,"Ġchild":7910,"hol":7911,"211":7912,"Ġsign":7913,"saW":7914,"NV":7915,"708":7916,"ĠÐ½Ðµ":7917,"Ø§Ø®":7918,"ĠĉĉĠĉĉĠĉĉĠĉĉ":7919,"wei":7920,"scrol":7921,"IQ":7922,"241":7923,"çķĮ":7924,"Xarticle":7925,"ĠBar":7926,".\",":7927,"(;":7928,"--><!--":7929,"Ġcf":7930,"anced":7931,"Ġfind":7932,"banners":7933,"Ġuna":7934,"Ġwork":7935,"etc":7936,"ĠDa":7937,"ÐµÐ½Ð¸Ñı":7938,"rv":7939,"ĠØ¥":7940,"iro":7941,"fort":7942,"é¦ĸé¡µ":7943,"ority":7944,"Ġhttps":7945,"ĠĠĠĠĠĠĠĠĠĠĠĠĠĠĠĠĠĠĠĠĠĠĠĠĠĠĠĠĠĠĠĠĠĠĠĠĠĠĠĠĠĠĠĠĠĠĠĠĠĠĠĠĠĠĠĠĠĠĠĠĠĠĠĠĠĠĠĠĠĠĠĠĠĠĠĠĠĠĠĠĠĠĠĠĠĠĠĠĠĠĠĠ":7946,"Hotels":7947,"EY":7948,"Ġbig":7949,"()\"":7950,"zie":7951,"offers":7952,"Ġche":7953,"tao":7954,"Pages":7955,"997":7956,";}@":7957,"ZA":7958,"usauk":7959,"ĠonMouse":7960,"303":7961,"%;\"></":7962,"Ø§ÙĨÛĮ":7963,"nik":7964,"=[\"":7965,"Iv":7966,"\":\"//":7967,"KPG":7968,",\\":7969,"Cy":7970,"ĠShop":7971,"english":7972,"å·ŀ":7973,"rio":7974,"Ġanim":7975,"rival":7976,"Events":7977,"spo":7978,"wall":7979,"enc":7980,"ĠInc":7981,"mundo":7982,"332":7983,"PD":7984,"ĠName":7985,"èµĦ":7986,"ston":7987,"(\"<":7988,"ä»£":7989,"ento":7990,"ights":7991,"Ng":7992,"asing":7993,"safe":7994,"à¹Ħ":7995,"tak":7996,"ubar":7997,"verification":7998,"<!--[":7999,"FQ":8000,"}};":8001,"ĠÑĦ":8002,"grow":8003,"promotion":8004,"bio":8005,"éĹ¨":8006,"Les":8007,"Line":8008,"302":8009,"Sport":8010,"obao":8011,"556":8012,"748":8013,"pubHome":8014,"RV":8015,"ĠSign":8016,"Pk":8017,"wesome":8018,"wu":8019,"yregb":8020,"å²":8021,"bronze":8022,"MX":8023,"pac":8024,"éł":8025,"507":8026,"885":8027,"Compatible":8028,"éĴ":8029,"stay":8030,"Tool":8031,"Only":8032,"Layout":8033,"Helvetica":8034,"454":8035,"adem":8036,"acter":8037,"eek":8038,"PO":8039,"Va":8040,"ÑĢÐ°Ð½":8041,")\"></":8042,"}}@":8043,"irl":8044,"lice":8045,"Zz":8046,"too":8047,"ĠMy":8048,"Report":8049,"additional":8050,"ï¼ģ</":8051,"tad":8052,"ĠPe":8053,"NCE":8054,"BW":8055,"Ġbusiness":8056,"940":8057,"Ġtxt":8058,"çĭ":8059,"à¤®":8060,"qs":8061,"LY":8062,"}},":8063,"³</":8064,"itor":8065,"Status":8066,"Ġfb":8067,"Ġpos":8068,"COM":8069,"TU":8070,"Ġflex":8071,"ĠLi":8072,"dealnews":8073,"ĠPa":8074,"lNjk":8075,"'/>":8076,"'+'":8077,"Hidden":8078,"ĠHTML":8079,"Em":8080,"KK":8081,"041":8082,"0430":8083,"ZY":8084,"ICK":8085,"Ġmanual":8086,"ODU":8087,"disclaimer":8088,"ĠĉĠĠĉ":8089,",[":8090,"oll":8091,"ØªÛĮ":8092,"Tech":8093,"ips":8094,"ĠĠĠĠĠĠĠĠĠĠĠĠĠĠĠĠĠĠĠĠĠĠĠĠĠĠĠĠĠĠĠĠĠĠĠĠĠĠĠĠĠĠĠĠĠĠĠĠĠĠĠĠĠĠĠĠĠĠĠĠĠĠĠĠĠĠĠĠĠĠĠĠĠĠĠĠĠĠĠĠĠĠĠĠ":8095,"sab":8096,"hv":8097,"/\",\"":8098,"]=\"":8099,"Ġfix":8100,"\"});":8101,"Day":8102,"åı£":8103,"att":8104,"fancy":8105,"Rpb":8106,"å¢":8107,"HS":8108,"ä»·":8109,"begin":8110,"journal":8111,"ĠĠĠĠĠĠĠĠĠĠĠĠĠĠĠĠĠĠĠĠĠĠĠĠĠĠĠĠĠĠĠĠĠĠĠĠĠĠĠĠĠĠĠĠĠĠĠĠĠĠĠĠĠĠĠĠĠĠĠĠĠĠĠĠĠĠĠĠĠĠĠĠĠĠĠĠĠĠĠĠĠĠĠĠĠĠĠĠĠĠĠĠĠĠĠĠĠĠĠĠĠĠĠĠĠĠĠĠĠĠĠĠĠĠĠĠĠĠĠĠĠĠĠĠĠĠĠĠĠĠĠĠĠĠĠĠĠĠĠĠĠĠĠĠĠĠĠĠĠĠĠĠĠĠĠĠĠĠĠĠĠĠĠĠĠĠĠĠĠĠĠĠĠĠĠĠĠĠĠĠĠĠĠĠĠĠĠĠĠĠĠĠĠĠĠĠĠĠĠĠĠĠĠĠĠĠĠĠĠĠĠĠĠĠĠĠĠĠĠĠĠĠĠĠĠĠĠĠĠĠĠĠĠĠĠĠĠĠĠĠĠĠĠĠĠĠĠĠĠĠĠĠĠĠĠĠĠĠĠĠĠĠĠĠĠĠĠĠĠĠĠĠĠĠĠĠĠĠĠĠĠĠĠĠĠĠĠĠĠĠĠĠĠĠĠĠĠĠĠĠĠĠĠĠĠĠĠĠĠĠĠĠĠĠĠĠĠĠĠĠĠĠĠĠĠĠĠĠĠĠĠĠĠĠĠĠĠĠĠĠĠĠĠĠĠĠĠĠĠĠĠĠĠĠĠĠĠĠĠĠĠĠĠĠĠĠĠĠĠĠĠĠĠĠĠĠĠĠĠĠĠĠĠĠĠĠĠĠĠĠĠĠĠĠĠĠĠĠĠĠĠĠĠĠĠĠĠĠĠĠĠĠĠĠĠĠĠĠĠĠĠĠĠĠĠĠĠĠĠĠĠĠĠĠĠĠĠĠĠĠĠĠĠĠĠĠĠĠĠĠĠĠĠĠĠĠĠĠĠĠĠĠĠĠĠĠĠĠĠĠĠĠĠĠĠĠĠĠĠĠĠĠĠĠĠĠĠĠĠĠĠĠĠĠĠĠĠĠĠĠĠĠĠĠĠĠĠĠĠĠĠĠĠĠĠĠĠĠĠĠĠĠĠĠĠĠĠĠĠĠĠĠĠĠĠĠĠĠĠĠĠĠĠĠĠĠĠĠĠĠĠĠĠĠĠĠĠĠĠĠĠĠĠĠĠĠĠĠĠĠĠĠĠĠĠĠĠĠĠĠĠĠĠĠĠĠĠĠĠĠĠĠĠĠĠĠĠĠĠĠĠĠĠĠĠĠĠĠĠĠĠĠĠĠĠĠĠĠĠĠĠĠĠĠĠĠĠĠĠĠĠĠĠĠĠĠĠĠĠĠĠĠĠĠĠĠĠĠĠĠĠĠĠĠĠĠĠĠĠĠĠĠĠĠĠĠĠĠĠĠĠĠĠĠĠĠĠĠĠĠĠĠĠĠĠĠĠĠĠĠĠĠĠĠĠĠĠĠĠĠĠĠĠĠĠĠĠĠĠĠĠĠĠĠĠĠĠĠĠĠĠĠĠĠĠĠĠĠĠĠĠĠĠĠĠĠĠĠĠĠĠĠĠĠĠĠĠĠĠĠĠĠĠĠĠĠĠĠĠĠĠĠĠĠĠĠĠĠĠĠĠĠĠĠĠĠĠĠĠĠĠĠĠĠĠĠĠĠĠĠĠĠĠĠĠĠĠĠĠĠĠĠĠĠĠĠĠĠĠĠĠĠĠĠĠĠĠĠĠĠĠĠĠĠĠĠĠĠĠĠĠĠĠĠĠĠĠĠĠĠĠĠĠĠĠĠĠĠĠĠĠĠĠĠĠĠĠĠĠĠĠĠĠĠĠĠĠĠĠĠĠĠĠĠĠĠĠĠĠĠĠĠĠĠĠĠĠĠĠĠĠĠĠĠĠĠĠĠĠĠĠĠĠĠĠĠĠĠĠĠĠĠĠĠĠĠĠĠĠĠĠĠĠĠĠĠĠĠĠĠĠĠĠĠĠĠĠĠĠĠĠĠĠĠĠĠĠĠĠĠĠĠĠĠĠĠĠĠĠĠĠĠĠĠĠĠĠĠĠĠĠĠĠĠĠĠĠĠĠĠĠĠĠĠĠĠĠĠĠĠĠĠĠĠĠĠĠĠĠĠĠĠĠĠĠĠĠĠĠĠĠĠĠĠĠĠĠĠĠĠĠĠĠĠ":8112,"éŃ":8113,"680":8114,"Euro":8115,"jn":8116,"Ġtra":8117,"aya":8118,"Feed":8119,"mw":8120,"Ġbi":8121,"miss":8122,"ingtonpost":8123,"filiate":8124,"cml":8125,"&&_.":8126,"mous":8127,"ç«Ļ":8128,"ondon":8129,"Ġpart":8130,"ĠPost":8131,"xzq":8132,"ÑĥÑĤ":8133,"æĹħ":8134,"509":8135,"iet":8136,"331":8137,"arios":8138,"aca":8139,"ĠĠĠĠĠĠĠĠĠĠĠĠĠĠĠĠĠĠĠĠĠĠĠĠĠĠĠĠĠĠĠĠĠĠĠĠĠĠĠĠĠĠĠĠĠĠĠĠĠĠĠĠĠĠĠĠĠĠĠĠĠĠĠĠĠĠĠĠĠĠĠĠĠĠĠĠĠĠĠĠĠĠĠĠĠĠĠĠ":8140,"idad":8141,"Ġblog":8142,"misc":8143,"Qa":8144,"zion":8145,"crumb":8146,"äºĮ":8147,"igital":8148,"ize":8149,"Ġvideos":8150,"MV":8151,"{\\\"":8152,"Qo":8153,"closebtn":8154,")\"><":8155,"sbox":8156,"\"))":8157,"Fz":8158,"setTargeting":8159,"VudHJ":8160,"393":8161,"Base":8162,"Language":8163,"æ»":8164,"çĥŃ":8165,"dg":8166,"ĠĠĉĉĉĉĉĉĉĉĉ":8167,"Uti":8168,"categor":8169,"SpryAssets":8170,"ĠĠĠĠĠĠĠĠĠĠĠĠĠĠĠĠĠĠĠĠĠĉ":8171,"Ġrespon":8172,"]?":8173,"Ā=":8174,"contains":8175,"generic":8176,"ÐµÐ·":8177,"ĠJava":8178,"bling":8179,"ĠPlay":8180,"wedd":8181,"yon":8182,"Transform":8183,"%;\">":8184,"lady":8185,"ÅĽ":8186,"did":8187,"uring":8188,"è®¡":8189,"Ġ64":8190,"ison":8191,"hou":8192,"SpryValidation":8193,"845":8194,"nas":8195,"ellow":8196,"Jb":8197,");\"><":8198,"rule":8199,"):(":8200,"Ġest":8201,"jus":8202,"wave":8203,"points":8204,"ĠĠĠĠĠĉĉĉĉĉĉ":8205,"Ġclose":8206,"Ġhigh":8207,"MDE":8208,"rX":8209,"ĠĠĠĠĠĠĠĠĠĠĠĠĠĠĠĠĠĠĠĠĉ":8210,"Sports":8211,"fD":8212,"æĤ":8213,"çı":8214,"anks":8215,"NF":8216,"udo":8217,"Wl":8218,"lon":8219,"){}}":8220,"443":8221,"DQog":8222,"Yw":8223,"esktop":8224,"rica":8225,"FFF":8226,"rek":8227,"055":8228,"ills":8229,"?_":8230,"olf":8231,"754":8232,"Ġlong":8233,"\"].":8234,"quirements":8235,"È«":8236,"JG":8237,"mz":8238,"contrib":8239,"Featured":8240,"Ð¸ÑģÑĤ":8241,")):":8242,"Order":8243,"Jh":8244,"juegos":8245,"Ð½Ð°Ñı":8246,"Ġval":8247,"bD":8248,"arcade":8249,"slick":8250,"ä»¥":8251,"çŁ¥":8252,"qt":8253,"Ġ('":8254,"Qk":8255,"Best":8256,"ĠsetTimeout":8257,"343":8258,"ØªÙĩ":8259,"\"\"":8260,"ÙĨÚ¯":8261,"ĠĠĠĠĉĉĉĉĉĉ":8262,"dx":8263,"ãĥĬ":8264,"iner":8265,"746":8266,"ific":8267,"bate":8268,"checkout":8269,"ä¼ł":8270,"Cp":8271,"([\"":8272,"WP":8273,"Ġscript":8274,"261":8275,"course":8276,"/',":8277,"à®¿":8278,"æĻĤ":8279,"çĲĥ":8280,"ila":8281,"Qm":8282,"firstChild":8283,"pictures":8284,"ras":8285,"|&":8286,"ĠĠĠĠĠĠĠĠĠĠĠĠĠĠĠĠĠĠĠĠĠĠĠĠĠĠĠĠĠĠĠĠĠĠĠĠĠĠĠĠĠĠĠĠĠĠĠĠĠĠ":8287,"EngName":8288,"ĠĉĉĉĉĉĉĠĉĉĉĉĉĉĉ":8289,"||{":8290,"063":8291,"067":8292,"culator":8293,"Ġpay":8294,"Center":8295,"ç²¾":8296,"pageview":8297,"660":8298,"848":8299,"yeS":8300,"imo":8301,"Ġter":8302,"clone":8303,"Ġnavbar":8304,"ìł":8305,"323":8306,"Jc":8307,"thor":8308,"ãĤº":8309,"lasses":8310,"ĠSex":8311,"\\\\\\\\":8312,"ãģĹãģ¦":8313,"æ¸¸æĪı":8314,"263":8315,"\"}.":8316,"TN":8317,"æĦı":8318,"Ġ255":8319,"Hi":8320,"pageName":8321,"sj":8322,"Ïİ":8323,"Ġsw":8324,"nex":8325,"___":8326,"ç»ı":8327,"00000000":8328,"æĸĻ":8329,"fox":8330,"çľŁ":8331,"Ġdownload":8332,"ĠAt":8333,"qf":8334,"Ġhours":8335,"Pc":8336,"friend":8337,"mazon":8338,"Player":8339,"tat":8340,"Create":8341,"Second":8342,"ALAAAAAABAAEAAAIC":8343,",\\\"":8344,"ĠÙħÙĪ":8345,"():":8346,"CON":8347,"oke":8348,"canonical":8349,"Mv":8350,"NCiAg":8351,"åħ¬åı¸":8352,"olutions":8353,"Ġavailable":8354,"Â´":8355,"=\"/?":8356,"ãĥĳ":8357,",[\"":8358,"Ġinto":8359,"645":8360,"Screen":8361,"scrollable":8362,"650":8363,"whats":8364,"ctlb":8365,"ĠWorld":8366,"ctlbbuh":8367,"Che":8368,"Follow":8369,"Ġwebsite":8370,"Bhb":8371,"was":8372,"geek":8373,"(\",\"":8374,"ãĥł":8375,"Dy":8376,"IlN":8377,"æİ¨":8378,"419":8379,"ĠÏĦÎ·":8380,"rain":8381,"Ġgeographic":8382,"Mc":8383,"ØªØµ":8384,"ÏĦÎ±":8385,"Dr":8386,"ãĤ£":8387,"æķĻ":8388,"FU":8389,"task":8390,"Ġday":8391,"ãģ£ãģ¦":8392,"KY":8393,"ando":8394,"ĠĉĉĉĉĉĠĉĉĉĉ":8395,"Ġgame":8396,"ÙĢ":8397,"bots":8398,"bam":8399,"gori":8400,"WVud":8401,"nation":8402,"frm":8403,"çİĭ":8404,"Call":8405,"è»":8406,"ÙħÛĮ":8407,"champion":8408,"àµį":8409,"æ©":8410,"ĠWatch":8411,"pression":8412,"èĭ±":8413,"aff":8414,"Í¼":8415,"members":8416,"Ġtool":8417,"Ft":8418,"KR":8419,"Ġnext":8420,"Tile":8421,"overview":8422,"nid":8423,"ĠSite":8424,"æº":8425,"ORT":8426,"012":8427,"Ġdays":8428,"resizable":8429,"pwqa":8430,"IY":8431,"ãĥ§":8432,"996":8433,"amazonaws":8434,"Ġagain":8435,"èģĶ":8436,"ÑĥÑĢ":8437,"Ġmessage":8438,"published":8439,"liber":8440,"çİ°":8441,"akamaihd":8442,"previous":8443,"666666":8444,"?'":8445,"uZ":8446,"ticker":8447,"Ġproducts":8448,"NR":8449,"UU":8450,"676":8451,"479":8452,"à«ĩ":8453,"song":8454,"Ġitems":8455,"Ġparse":8456,"dC":8457,"yucs":8458,"353":8459,"fbq":8460,"smoo":8461,"raw":8462,"gent":8463,"owl":8464,"france":8465,"Ġlogo":8466,"Ġhand":8467,"ĠØ·":8468,"mortg":8469,"ãĥ¼ãĥĪ":8470,"tif":8471,"283":8472,"lNjE":8473,"Vh":8474,"voice":8475,"Overlay":8476,"affic":8477,"Travel":8478,"ĠGame":8479,"nam":8480,"Pjw":8481,"six":8482,"âĤ¬Â¡":8483,"Å¾ÃĲ":8484,"MENT":8485,"èī²":8486,"oper":8487,"dimension":8488,"hotels":8489,"ization":8490,"RSS":8491,"utter":8492,"cret":8493,"HY":8494,"809":8495,"Ġteaser":8496,"hicle":8497,"gbqfb":8498,"Ġthey":8499,"locked":8500,"Ġjust":8501,"PI":8502,"pagation":8503,"pare":8504,"zing":8505,"750":8506,"gmail":8507,"756":8508,"Ġmonth":8509,"LIN":8510,"Gw":8511,"SCRIPT":8512,"Zs":8513,"æŀľ":8514,"Ġico":8515,"Ġdoes":8516,"signIn":8517,"HRw":8518,"Gk":8519,"995":8520,"ĠDis":8521,"CSS":8522,"Ġentry":8523,"Bn":8524,"dobe":8525,"Air":8526,"ÏģÎ±":8527,"bullet":8528,"native":8529,"skip":8530,"demo":8531,"notice":8532,"à¤¯":8533,"ÃŃa":8534,"opup":8535,"KD":8536,"basket":8537,"20160":8538,"ĠAM":8539,"404040":8540,"AGE":8541,"Ð°Ð·":8542,"(&#":8543,"ĉĉĉĉĉĉĉĉĉĉĉ":8544,"],[\"":8545,"]){":8546,"608":8547,"drive":8548,"fect":8549,"Ju":8550,"phones":8551,"JD":8552,"Ġ<!":8553,"ido":8554,"Ġ',":8555,"micro":8556,"Colorstr":8557,"pture":8558,"ä»Ĭ":8559,"lng":8560,"yp":8561,"ÑģÐºÐ¸Ð¹":8562,"0435":8563,"poll":8564,"707":8565,"ĠPUBLIC":8566,"querySelector":8567,"PY":8568,"rg":8569,"æŃ£":8570,"zg":8571,"\">$":8572,"ĠĉĠĠĠĠĠĠĠĠĠĠĠ":8573,"Src":8574,"OX":8575,"Ġflag":8576,"Ð°Ð´":8577,"metrics":8578,"();\"":8579,"nds":8580,"20160425":8581,"nick":8582,"342":8583,"Uu":8584,"464":8585,"282":8586,"vf":8587,"ÐĦ":8588,"çº¿":8589,"enchant":8590,"ĠTran":8591,"MAX":8592,"\"+\"":8593,"Hide":8594,"Member":8595,"Story":8596,"ĠMobile":8597,"045":8598,"ERS":8599,"ÏģÎ¿":8600,"Real":8601,"578":8602,"sts":8603,"Level":8604,"Ã¼n":8605,"065":8606,"Ġ600":8607,"coupon":8608,"uPg":8609,"å¸ĥ":8610,"iPhone":8611,"éĥ½":8612,"ĠÄ°":8613,">/":8614,"Ġ._":8615,"åľº":8616,"icn":8617,"mater":8618,"planning":8619,"dad":8620,"slides":8621,"ç¤¾":8622,"Â¹":8623,"\">-":8624,"np":8625,"447":8626,"ĠStar":8627,"ches":8628,"prospect":8629,"Fore":8630,"sku":8631,"ĠĉĉĉĉĉĉĉĉĉĉĠĉĉĉĉĉĉĉĉĉĉ":8632,"Red":8633,"Ġol":8634,"bian":8635,"bilder":8636,"(//":8637,"Kb":8638,"atri":8639,"bebe":8640,"æĹ¥æľ¬":8641,"lNzM":8642,"Nb":8643,"Ġoptions":8644,"iny":8645,"ECT":8646,"NQ":8647,"ming":8648,"vendor":8649,"èĥ":8650,"MR":8651,"OO":8652,"è®¾":8653,"Poli":8654,"Ġside":8655,"Ġincre":8656,"lbl":8657,"Plus":8658,"]],":8659,"lad":8660,"substr":8661,"Ġfilter":8662,"EAAAA":8663,"likes":8664,"mento":8665,"EVE":8666,"å®¢":8667,"seller":8668,"å±ķ":8669,"charAt":8670,"ĠSub":8671,"process":8672,">\");":8673,"_\"":8674,"Ġ=\"":8675,"æĬ¥":8676,"Ð²ÐĤ":8677,"develop":8678,"ĀĀĀĀ":8679,"PX":8680,"inci":8681,"1003":8682,"oz":8683,"èº":8684,"Ġperson":8685,"ĠBusiness":8686,"payment":8687,"expand":8688,"roman":8689,"accordion":8690,"Hk":8691,"wait":8692,"ãģĹãģŁ":8693,"Alert":8694,"ÙĬÙĦ":8695,"Fly":8696,"459":8697,"Animation":8698,"322":8699,"ãģ¤":8700,"LmNvb":8701,"Channel":8702,"FW":8703,"352":8704,"åĲĮ":8705,"([^":8706,"Ġ\"//":8707,"CQk":8708,"414":8709,"Vw":8710,"ccer":8711,"qd":8712,"875":8713,"ĠEnter":8714,")\",\"":8715,"jy":8716,"nv":8717,"uts":8718,"ï½Ĺï½Ĺï½Ĺï½Ĺ":8719,"FG":8720,"Jz":8721,"iv":8722,"ciones":8723,"debug":8724,"ering":8725,"passwd":8726,"conten":8727,"Ð½Ð¸Ðº":8728,"),\"":8729,"åİŁ":8730,"Ġà¶":8731,"dist":8732,"Exception":8733,"568":8734,"449":8735,"dress":8736,"Ġnon":8737,"558":8738,"Ġ[\"":8739,"ĠJS":8740,"Categories":8741,"577":8742,"ÑĥÐ´":8743,"Ġmodule":8744,"Comments":8745,"Has":8746,"ducation":8747,"Ø¯Ùĩ":8748,"Css":8749,"metro":8750,"sistent":8751,"Source":8752,"åĶ":8753,"à¸¸":8754,"Ġ'#":8755,"477":8756,"SSL":8757,"ticket":8758,"737373":8759,"ckets":8760,"ships":8761,"ĠPlus":8762,"Ġwin":8763,"LTAu":8764,"rui":8765,"<Ā":8766,"actor":8767,"Ġdropdown":8768,"}}\"":8769,"999999":8770,"Ġshop":8771,"ĠÐĶ":8772,"Ġknow":8773,"ÐµÐ½Ð¸Ðµ":8774,"$(\"":8775,"JPG":8776,"ĠSu":8777,"JZ":8778,"power":8779,"ĠÑį":8780,"ils":8781,"Ġer":8782,"Ġbanner":8783,"é¢ĺ":8784,"ago":8785,"IDE":8786,"nment":8787,"cated":8788,">Ā":8789,"Hh":8790,"Windows":8791,"Ġmiddle":8792,"Ap":8793,"Client":8794,"878":8795,"Control":8796,"spry":8797,"015":8798,"SC":8799,"Â¿":8800,"351":8801,"rendered":8802,"ãģ¿":8803,"Ġtracking":8804,"sight":8805,"olx":8806,"lNjM":8807,"é£Ł":8808,"dri":8809,"anda":8810,"optimi":8811,"install":8812,"460":8813,"nx":8814,"pas":8815,"ìĬ":8816,"sic":8817,"Ġpoli":8818,"1280":8819,"868":8820,"zf":8821,"ssen":8822,"microsoft":8823,"}}.":8824,"$('":8825,"Ġhentry":8826,"Resource":8827,"lapsed":8828,"nia":8829,"pure":8830,"xLj":8831,"Ġwhich":8832,"èĬ±":8833,"éĸĭ":8834,"Jp":8835,"LV":8836,"ç¨ĭ":8837,"tier":8838,"MG":8839,"EI":8840,"Ġthem":8841,"JW":8842,"QT":8843,"445":8844,"051":8845,"Drop":8846,"aura":8847,"887":8848,"woocommerce":8849,"çĦ¡":8850,"stores":8851,"hw":8852,"tagName":8853,"Ev":8854,"gas":8855,"ĠEng":8856,"Ġservices":8857,"ckt":8858,"lazada":8859,"+</":8860,"muni":8861,"rtg":8862,"JY":8863,"à¸°":8864,"åİ¿":8865,"estival":8866,"trip":8867,"Ġ$('":8868,"Ġfade":8869,"ĉĉĉĉĉĉĉĉĉĉ":8870,"ĠHelp":8871,"Kg":8872,"ized":8873,"gree":8874,"Access":8875,"Ġ\"@":8876,"ĠĠĠĠĠĠĠĉ":8877,"challenge":8878,"Ua":8879,"arge":8880,"Register":8881,"Ff":8882,"ê³":8883,"054":8884,"'))":8885,"ĠMedia":8886,"Fc":8887,"æł¼":8888,"ĠWar":8889,"Ġbuy":8890,"Challenge":8891,"ãģĻãĤĭ":8892,"è§£":8893,"ç·":8894,"UB":8895,"ãĥŁ":8896,"508":8897,"ĠBu":8898,"846":8899,"Oa":8900,"aki":8901,"ĠAndroid":8902,"tek":8903,"lim":8904,"nba":8905,"RR":8906,"Ġms":8907,"ĠÙĥ":8908,"ĠRa":8909,":/":8910,"Ø³ÙĬ":8911,"ìĹ":8912,"Ġí":8913,"Flash":8914,"mation":8915,"Ġellipsis":8916,"658":8917,"signed":8918,"\"};":8919,"Propagation":8920,"anger":8921,"çĪ±":8922,";},":8923,"ĠBlack":8924,"åĩ»":8925,"046":8926,"FI":8927,"HER":8928,"á»ĳ":8929,".\";":8930,"rr":8931,"astClick":8932,"è¯Ħ":8933,"Ġci":8934,"ctronics":8935,"0438":8936,"Ez":8937,"Ze":8938,"spinner":8939,"Jq":8940,"Ste":8941,"unded":8942,"ceive":8943,"678":8944,"roy":8945,"Yahoo":8946,"UC":8947,"MH":8948,"Rm":8949,"372":8950,"fang":8951,"Ø±Ùģ":8952,"ĠĉĉĉĉĉĠ":8953,"Ġred":8954,"579":8955,"Ġfjs":8956,"stern":8957,"scu":8958,"Ġ\"#":8959,"){\"":8960,"Pos":8961,"sored":8962,"craft":8963,"dD":8964,"Ð¸ÑĨ":8965,"elect":8966,"éĩį":8967,"Ki":8968,"Ġlight":8969,"aHR":8970,"aux":8971,"/&":8972,"Fn":8973,"bull":8974,"Visitor":8975,"havior":8976,"æ¢":8977,"aolcdn":8978,"Ġ\"-//":8979,"ĠAir":8980,"à¦®":8981,"allow":8982,"ĠDay":8983,"Ut":8984,"ĠPassword":8985,"è¨ĺ":8986,"bnRyeS":8987,"jum":8988,"060":8989,"909":8990,"àª°":8991,"UX":8992,"Women":8993,"musi":8994,"Ġ46":8995,"rench":8996,"1487":8997,"agg":8998,"goto":8999,"Ø¯ÛĮØ¯":9000,"åı·":9001,"Bc":9002,"](":9003,"ØªÙĪ":9004,"ĠIslands":9005,"Sale":9006,"559":9007,"Arrow":9008,"qm":9009,"ÏĦÎ·":9010,"martphone":9011,"hbm":9012,"qh":9013,"Ð¤":9014,"341":9015,"finite":9016,"Tb":9017,"Dw":9018,"refox":9019,"Ġodd":9020,"localized":9021,"840":9022,"æ£":9023,"978":9024,"package":9025,"Ġlas":9026,"047":9027,"zebra":9028,"Ġgb":9029,"Invalid":9030,"jump":9031,"gate":9032,"kle":9033,"Fh":9034,"éĽ»":9035,"Fran":9036,"GoogleAnalytics":9037,"Ġ]]>":9038,"aro":9039,"485":9040,"fol":9041,"807":9042,"CX":9043,"Py":9044,"dtd":9045,"wire":9046,"Verify":9047,"çīĮ":9048,"ĠStates":9049,"877":9050,"ãĤ»":9051,"Init":9052,"ĠĉĠĠĠĠĉ":9053,"ĠFi":9054,"Yp":9055,"Ġgames":9056,"Ġrepeat":9057,"pubHomePro":9058,"Gr":9059,"Hf":9060,"ulu":9061,"ØªÙħ":9062,"filters":9063,"635":9064,"à¸¹":9065,"updated":9066,"gift":9067,"Ð°Ð»ÑĮ":9068,"å©":9069,"kf":9070,"908":9071,"ĠĠĠĠĠĠĠĠĠĠĠĠĠĠĠĠĠĠĠĠĠĠĠĠĠĠĠĠĠĠĠĠĠĠĠĠĠĠĠĠĠĠĠĠĠĠĠĠĠĠĠĠĠĠĠ":9072,"ength":9073,"ĠĉĉĠĠ":9074,"ĠShow":9075,"Kc":9076,"Ġ}}":9077,"408":9078,"digitalspyuk":9079,"808":9080,"ĠÐ²ÐĤ":9081,"PV":9082,"Ġlife":9083,"dec":9084,"Lg":9085,"erman":9086,"fish":9087,"ĠRequirements":9088,"Care":9089,"NB":9090,"nin":9091,"aging":9092,"058":9093,"éĢŁ":9094,"Ã½":9095,"thes":9096,"styled":9097,"velle":9098,"lev":9099,"ãĤĦ":9100,"venue":9101,"ĠCategory":9102,"ampaign":9103,"620":9104,"ê¸°":9105,"rl":9106,"ables":9107,"ÑĢÐ°Ð²":9108,"ĠAccessories":9109,"rez":9110,"srcset":9111,"798":9112,"ZO":9113,"uD":9114,"æĬķ":9115,"wers":9116,"sharing":9117,"ĠTa":9118,"bao":9119,"ually":9120,"cab":9121,"everything":9122,",(":9123,"zA":9124,"Ð¾Ñĩ":9125,"Param":9126,"dept":9127,"MDA":9128,"Yl":9129,"æļ":9130,"321":9131,"Ġà¤¸":9132,"dimento":9133,"Nf":9134,"jack":9135,"EX":9136,"Tube":9137,"ĠGames":9138,"ãĤĪ":9139,"Ġ[[":9140,"ĠØ±Ø§":9141,"ĠCity":9142,"userId":9143,"visor":9144,"çĻ»":9145,"607":9146,"Ġposts":9147,"946":9148,"æĶ¶":9149,"ungen":9150,"titulo":9151,"1440":9152,"427":9153,"Ei":9154,"bid":9155,"Cam":9156,"science":9157,"ĠĉĠĠĠĠĠĠĠĠĠĠĠĠĠĠĠ":9158,"Jg":9159,"PlaceHolder":9160,"variant":9161,"messages":9162,"sx":9163,"ĠĉĉĠĉĉĠĉĉ":9164,"Ġpass":9165,"huffingtonpost":9166,"Sch":9167,"åħī":9168,"ĠÐ¸Ð·":9169,"Ñĸ":9170,"'){":9171,"'},":9172,"013":9173,"ãĢĤ</":9174,"æĴŃ":9175,"Loader":9176,"èº«":9177,"regular":9178,"bour":9179,"ĠĠĠĉĉĠĠĠĉĉ":9180,"]=!":9181,"qy":9182,"({\"":9183,"nth":9184,"Ġâ":9185,"empre":9186,"membership":9187,"è·¯":9188,"[];":9189,"vor":9190,"ĠSet":9191,"rip":9192,"884":9193,"Î¡":9194,"sian":9195,"AX":9196,"ĠĉĉĉĠ":9197,"Ġpeople":9198,"Portugu":9199,"jQ":9200,"Äĩ":9201,"ĠĉĠĠ":9202,"Ø±ÛĮÙĨ":9203,"offername":9204,"Õ¡":9205,"èĹ":9206,"Ġnum":9207,"907":9208,"ĠOff":9209,"ram":9210,"659":9211,"forumdisplay":9212,"ÑĢÐµÐ´":9213,"WY":9214,"kv":9215,"jian":9216,"uppercase":9217,"Prd":9218,"gifts":9219,"hip":9220,"æĽ´å¤ļ":9221,"hE":9222,"living":9223,"tput":9224,"meteo":9225,"ĠÐĲ":9226,"Ġchannel":9227,"erie":9228,"ä½į":9229,"Ġacc":9230,"tte":9231,"universal":9232,"ĠCard":9233,"625":9234,"JF":9235,"Mer":9236,"lian":9237,"legend":9238,"æ°ĳ":9239,"BJECT":9240,"Sell":9241,"551":9242,"lek":9243,"ìĦ":9244,"Slo":9245,"Ġlu":9246,"ĠMin":9247,"Ext":9248,"Hd":9249,"SX":9250,"271":9251,"\\-":9252,"ãĥĵ":9253,"ĠCor":9254,"Inner":9255,"à¦¸":9256,"Tran":9257,"Upper":9258,"Ġ2014":9259,"Ġclip":9260,"HC":9261,"Tog":9262,"isFunction":9263,"asure":9264,"andard":9265,"Ġ((":9266,"Ø¯Ø§ÙĨÙĦÙĪØ¯":9267,"sugges":9268,"cios":9269,".&":9270,"456":9271,"IGHT":9272,"idx":9273,"ĠĉĉĉĉĠ":9274,"abort":9275,"Î¯Î±":9276,"bw":9277,"066":9278,"sumer":9279,"inherit":9280,"MjA":9281,"pak":9282,"Ġdon":9283,"ç©º":9284,"693":9285,"Ã¡n":9286,"Cloud":9287,"cdnds":9288,"Îł":9289,"á»Ļ":9290,"ZZ":9291,"ĠSch":9292,"ĠscNav":9293,"QI":9294,"later":9295,"fat":9296,"ligi":9297,"áº¥":9298,"zip":9299,"035":9300,"vents":9301,"Ġmit":9302,"Ġbegin":9303,"Ġ580":9304,"0633":9305,"LTE":9306,"DT":9307,"=\"ãĢĲ":9308,"financial":9309,"Rv":9310,"cdc":9311,"eneral":9312,"nQ":9313,"Save":9314,"ists":9315,"xo":9316,"lien":9317,"vars":9318,"lover":9319,"ici":9320,"2017":9321,"Art":9322,"VA":9323,"ÑĢÑĭ":9324,"Current":9325,"Ø²Ø§Ø±":9326,"Ġwa":9327,"']=":9328,"resp":9329,"faces":9330,"womens":9331,"JQ":9332,"ìŀ":9333,"Ġ33":9334,"849":9335,"Zone":9336,"idi":9337,"Hr":9338,"camera":9339,"847":9340,"disable":9341,"Ġ96":9342,"accounts":9343,"Sum":9344,"Ñ¯":9345,"Ġvia":9346,"bread":9347,"dified":9348,"bv":9349,"Organ":9350,"åŀĭ":9351,"ĠShare":9352,"ãģĭãĤī":9353,"dun":9354,"979":9355,"ece":9356,"Fix":9357,"tish":9358,"âĢº":9359,"bild":9360,"dolimg":9361,"emi":9362,"Ġ%>":9363,"joy":9364,"composed":9365,"HU":9366,"ĠĉĉĠĠĠĠĠĠĠĠ":9367,"/~":9368,"uP":9369,"cfm":9370,"éª":9371,"Hotel":9372,"çİ©":9373,"qo":9374,"ÎĿ":9375,"Oc":9376,"Ġfn":9377,"yregbnr":9378,"Attr":9379,"larÄ±":9380,"ONE":9381,"ØŃÙħ":9382,"Selected":9383,"056":9384,"library":9385,"Ġ//-->":9386,"Ġmatch":9387,"cked":9388,"datePublished":9389,"VW":9390,"lNjQ":9391,"Mac":9392,"Length":9393,"ĠSte":9394,"Eb":9395,"aba":9396,"{'":9397,"428":9398,"448":9399,"Use":9400,"=\"/~":9401,"IHN":9402,"otal":9403,"clothing":9404,"ĠENDS":9405,"Gb":9406,"dX":9407,"Ġ37":9408,"beat":9409,"military":9410,"...\"":9411,"æ³¨":9412,"745":9413,"precomposed":9414,"Nk":9415,"demandware":9416,"Credit":9417,"atural":9418,";\\":9419,"Ir":9420,"tops":9421,"2526":9422,"Ð½Ð°":9423,"à«Ģ":9424,"å¾®":9425,"675":9426,"lower":9427,"HJl":9428,"åį¡":9429,"Ġweek":9430,"ĠSTART":9431,"VC":9432,"èħ":9433,"ĠPS":9434,"409":9435,"Ġ42":9436,"Ġrotate":9437,"è¼":9438,"Ġ\"\\":9439,"à¤¹":9440,"Ġlive":9441,"________":9442,"å£«":9443,"utili":9444,"fem":9445,"Ġou":9446,"(\"/":9447,"Kr":9448,"identifier":9449,"Uc":9450,"048":9451,"ÏĦÎµ":9452,"acional":9453,"Ġsee":9454,"taobao":9455,"Latest":9456,"channels":9457,"IHR":9458,"hotmail":9459,"})":9460,"screenshots":9461,"arth":9462,"Ġba":9463,"050":9464,"à¹Ĥ":9465,"695":9466,"14634":9467,"popover":9468,"DR":9469,"PK":9470,"ancy":9471,"ources":9472,"Ø§Ø³Øª":9473,"ChalStr":9474,"bie":9475,"Ġphone":9476,"ÙĦØ§Ùħ":9477,"EU":9478,"gmo":9479,"æĹł":9480,"aciÃ³n":9481,"lists":9482,"blockquote":9483,"keys":9484,"ĠJo":9485,"traffic":9486,"kicker":9487,"ĠCollection":9488,"Aa":9489,"ÑĥÐ¿":9490,"Ġ//]]>":9491,"Bz":9492,"]{":9493,"buying":9494,"ental":9495,"Mb":9496,"747":9497,"ÑĤÐ°":9498,"retirement":9499,"picker":9500,"çĽ´":9501,"wri":9502,"final":9503,"Side":9504,"tmall":9505,"prime":9506,"alibaba":9507,"Send":9508,"qe":9509,"NK":9510,"ÐĽ":9511,"ĠĉĉĠĠĠĠĠĠĠĠĠĠĠ":9512,"\\\">\\":9513,"ustra":9514,"SQ":9515,"ported":9516,"ĠManager":9517,";|&":9518,"âĢ¡":9519,"ĠHer":9520,"visitor":9521,"Ġ...</":9522,"Dg":9523,"994":9524,"lGODlhAQABA":9525,"mov":9526,"Ġpopup":9527,"recipe":9528,"057":9529,"ĠÐĿ":9530,"party":9531,"ĠÐ²ÐĤÐĦ":9532,"649":9533,"||[]":9534,"éķ¿":9535,"636":9536,"publisher":9537,"ĠOBJECT":9538,"uge":9539,"lNjc":9540,"è¿Ļ":9541,"Cache":9542,"Ġint":9543,"ÎĹ":9544,"']:":9545,"DL":9546,"ĠâĢľ":9547,"æµģ":9548,"äºİ":9549,"ABAAAA":9550,"anews":9551,"hate":9552,"ĠĠĠĠĠĠĠĠĠĠĉ":9553,"gold":9554,"Met":9555,"Ġparams":9556,"private":9557,"yandex":9558,"){#":9559,"Quick":9560,"adas":9561,"logy":9562,"Stop":9563,"ĉĉĉĉĉĉĉĉĉĉĉĉĉĉĉĉĉĉĉĉĉĉĉĉĉĉĉĉĉĉĉĉĉĉĉĉĉĉĉĉĉĉĉĉĉĉĉĉĉĉĉĉĉĉĉĉĉĉĉĉĉĉĉĉĉĉĉĉĉĉĉĉĉĉĉĉĉĉĉĉĉĉĉĉĉĉĉĉĉĉĉĉĉĉĉĉĉĉĉĉĉĉĉĉĉĉĉĉĉĉĉĉĉĉĉĉĉĉĉĉĉĉĉĉĉĉĉĉ":9564,"blem":9565,"testi":9566,"644":9567,"NCjx":9568,"Special":9569,"#?":9570,"hard":9571,"ational":9572,"Ye":9573,"Ġplan":9574,"))},":9575,"Ter":9576,"Ġsbox":9577,"elements":9578,"sci":9579,"Ġtwo":9580,"vey":9581,"nj":9582,"shed":9583,"947":9584,"Ġ['":9585,"Bk":9586,"ĠCheck":9587,"ĠĠĠĠĠĠĠĠĠĠĠĠĠĠĠĠĠĠĠĠĠĠĠĠĠĠĠĠĠĠĠĠĠĠĠĠĠĠĠĠĠĠĠĠĠĠĠĠĠĠĠĠĠĠĠĠĠĠĠĠĠĠĠĠĠĠĠĠĠĠĠĠĠĠĠĠĠĠĠĠĠĠĠĠĠ":9588,"works":9589,"ots":9590,"647":9591,"Îļ":9592,"ckwave":9593,"ĠIf":9594,"382":9595,"MzMz":9596,"JE":9597,"498":9598,"rivals":9599,"Ġbefore":9600,"ÙĬÙĪ":9601,"Foto":9602,"donesia":9603,"Vm":9604,"jer":9605,"sar":9606,"554":9607,"ĠØ¹ÙĦÙī":9608,"æ¬¡":9609,"bGU":9610,"gx":9611,"MK":9612,"Ip":9613,"comscore":9614,"Ġson":9615,"hon":9616,"night":9617,"677":9618,"20160510":9619,"INT":9620,"added":9621,"068":9622,"Ġref":9623,"hack":9624,"069":9625,"ĠTime":9626,"Ġpour":9627,"have":9628,"ixel":9629,"èŃ":9630,"åĪ¶":9631,"Grid":9632,"directory":9633,">|<":9634,"GS":9635,"Zk":9636,"UlN":9637,"swiper":9638,"Gc":9639,"favorite":9640,"\".":9641,"Die":9642,"rum":9643,"æ¯Ķ":9644,"ãĤ·ãĥ§":9645,"dou":9646,"Collection":9647,"Ġpur":9648,"Ð¸Ñħ":9649,"çĮ":9650,"Ġobj":9651,"Hc":9652,"cons":9653,"corp":9654,"ĠÙĪØ§ÙĦ":9655,"ĠÚĨ":9656,"attributes":9657,"Yx":9658,"åįİ":9659,"VIE":9660,"Ø§ÙĨÙĩ":9661,"++;":9662,"lNjg":9663,"Not":9664,"gk":9665,"msapplication":9666,"361":9667,"Vl":9668,"sin":9669,"sections":9670,"cinema":9671,"Year":9672,"Desc":9673,"invalid":9674,"streams":9675,"é¢ĳ":9676,"wh":9677,"liga":9678,"adbl":9679,"Ø±Ø©":9680,"AO":9681,"gstatic":9682,"Ê±":9683,"reme":9684,"ĠEl":9685,"æ©Ł":9686,"lich":9687,"392":9688,"hili":9689,"ìĭ":9690,"portada":9691,"careers":9692,"suggest":9693,"parsys":9694,"åľĭ":9695,"ĠØ§Ùħ":9696,"959":9697,"which":9698,"futbol":9699,"Ġcontract":9700,"inf":9701,"booking":9702,"\"}],\"":9703,"Clear":9704,"ĠDown":9705,"Ġcho":9706,"ä¸ľ":9707,"Az":9708,"yk":9709,"Ø§Ú©":9710,"Ud":9711,"Hl":9712,"ella":9713,"Ġpres":9714,"ì§":9715,"mercial":9716,"lout":9717,"odHRw":9718,"VN":9719,"values":9720,"ĠĠĉĉĉĉĉĉĉĉĉĉ":9721,"Ø´ÙĨ":9722,"æģ¯":9723,"Fmedia":9724,"Jvb":9725,"mak":9726,"rown":9727,"RX":9728,"ĠÑĢÐµ":9729,"Ġcss":9730,"Empty":9731,"Ãªn":9732,"016":9733,"Ġrun":9734,"Sites":9735,"gds":9736,"ZXI":9737,"acti":9738,"hellip":9739,"Ġcap":9740,"668":9741,"ĠIndia":9742,"Ġresult":9743,"Ġuk":9744,"lations":9745,"mint":9746,"IGRhdGE":9747,"Qf":9748,"540":9749,"Bckt":9750,"Spot":9751,"auti":9752,"%=":9753,"diy":9754,"ãĥ¼ãĤ¹":9755,"FX":9756,"609":9757,"Tk":9758,"dable":9759,"GW":9760,"rn":9761,"515":9762,"ä¸İ":9763,"CY":9764,"Market":9765,"iao":9766,"Ġfeed":9767,"qual":9768,"362":9769,"Ø¨Ø§ÙĦ":9770,"ĠYahoo":9771,"pul":9772,"Ġyear":9773,"å®ŀ":9774,"Ø§ÛĮÛĮ":9775,"hua":9776,"\"</":9777,"bus":9778,"Ġbet":9779,"ticias":9780,"material":9781,"åıĭ":9782,"ĠÐ²Ñĭ":9783,"520":9784,"VER":9785,"Ġcover":9786,"available":9787,"Username":9788,"ĠLight":9789,"976":9790,"Ø¬Ùħ":9791,"BK":9792,"ĠAuto":9793,"anh":9794,"then":9795,"road":9796,"Ġonsubmit":9797,"alendar":9798,"italic":9799,"saT":9800,"749":9801,"\"],[\"":9802,".__":9803,"JO":9804,"brity":9805,"JU":9806,"tras":9807,"0516":9808,"effect":9809,"858":9810,"ãĥ³ãĤ°":9811,"311":9812,"æĦŁ":9813,"[^":9814,"dog":9815,"ãģĽ":9816,"ÙģÙĬ":9817,"ListItem":9818,"Lu":9819,"lista":9820,"Rpd":9821,"âĢ°":9822,"èİ":9823,"Ġstrong":9824,"Ġold":9825,"Sibling":9826,"aspect":9827,"indicator":9828,"pedia":9829,"jz":9830,"recommend":9831,"aven":9832,"GTM":9833,"refix":9834,"ÑģÑĤÑĮ":9835,"Ġway":9836,"éŁ³":9837,"ĠSie":9838,"ĠPlan":9839,"áºŃ":9840,"è®º":9841,"vertising":9842,"shou":9843,"Itemid":9844,"San":9845,"363":9846,"clearTimeout":9847,"ĠÙħØ¹":9848,"visit":9849,"ãģ£ãģŁ":9850,"JK":9851,"Span":9852,"YAHOO":9853,"åŃ£":9854,">-":9855,"Ġmega":9856,"ĠÃ©":9857,"World":9858,"201603":9859,"ĠFil":9860,"654":9861,"}});":9862,"rsrc":9863,"é¤":9864,"ãĥĿ":9865,"anese":9866,"äº¤":9867,"pbm":9868,"æ¼«":9869,"Ġundefined":9870,"Foot":9871,"ĠØ§ÛĮØ±Ø§ÙĨ":9872,"Ey":9873,"Who":9874,"ĠNet":9875,"udents":9876,"markets":9877,"lNDk":9878,"FP":9879,"Support":9880,"categoryId":9881,"Ġlte":9882,"-=":9883,"bags":9884,"zk":9885,"ĠKing":9886,"NI":9887,"Ġdetails":9888,"UpperCase":9889,"tuni":9890,"ticos":9891,"Ġalpha":9892,"Ds":9893,"Ġwhere":9894,"Ġleaf":9895,"FOR":9896,"pager":9897,"672":9898,"stone":9899,"constru":9900,"âĢ¹":9901,"shang":9902,"VI":9903,"ĠVideos":9904,"ssi":9905,"idu":9906,"toUpperCase":9907,"Ø¨ÙĦ":9908,"416":9909,"PZ":9910,"Du":9911,"é¾":9912,"wsj":9913,"856":9914,"084":9915,"naW":9916,"Params":9917,"Partner":9918,"ĠProducts":9919,"tico":9920,"GC":9921,"VQ":9922,"reader":9923,"ĠØ¨Ø±Ø§ÛĮ":9924,"pageTracker":9925,"ç¢":9926,"Ġ\",\"":9927,"affiliate":9928,"indent":9929,"Ø§Ø²ÛĮ":9930,"smoothing":9931,"=\"\"/></":9932,"ĠØ§ÛĮÙĨ":9933,"jar":9934,"bas":9935,"std":9936,"886":9937,"ODk":9938,"510":9939,"ĠĠĠĠĠĠĠĠĠĠĠĠĠĠĠĠĉ":9940,"vh":9941,"livedoor":9942,"ultiple":9943,"Yr":9944,"finish":9945,"Nu":9946,"Ð§":9947,"burger":9948,"Super":9949,"Ġsingle":9950,"å®¹":9951,"DER":9952,"\",\"\\":9953,"402":9954,"fv":9955,"ĠÐĳ":9956,"ZU":9957,"]-[":9958,"oacute":9959,"Ġtem":9960,"2527":9961,"879":9962,"legacy":9963,"âĤ¬âĢľ":9964,"504":9965,"Ent":9966,"twe":9967,"Ġsta":9968,"Ġenable":9969,"Unit":9970,"editorial":9971,"dor":9972,"tec":9973,"JR":9974,";}\"":9975,"689":9976,"Åŀ":9977,"679":9978,"Ãµ":9979,"gel":9980,"registration":9981,"recruit":9982,"lÄ±":9983,"qp":9984,"Ð¼Ð°":9985,"Ck":9986,"ãģ¾ãģĻ":9987,"aria":9988,"htc":9989,"ãĤ¬":9990,"strict":9991,"Ġnh":9992,"ĠHelvetica":9993,"Bp":9994,"Desktop":9995,"kur":9996,"âĢļÂ¬":9997,"evt":9998,"dcd":9999}